/* Copyright 2019 The TensorFlow Authors. All Rights Reserved.

Licensed under the Apache License, Version 2.0 (the "License");
you may not use this file except in compliance with the License.
You may obtain a copy of the License at

    http://www.apache.org/licenses/LICENSE-2.0

Unless required by applicable law or agreed to in writing, software
distributed under the License is distributed on an "AS IS" BASIS,
WITHOUT WARRANTIES OR CONDITIONS OF ANY KIND, either express or implied.
See the License for the specific language governing permissions and
limitations under the License.
==============================================================================*/

// Automatically created from a TensorFlow Lite flatbuffer using the command:
// xxd -i sine_model.tflite > sine_model_data.cc
// See the README for a full description of the creation process.

#include "sine_model_data.h"

// We need to keep the data array aligned on some architectures.
#ifdef __has_attribute
#define HAVE_ATTRIBUTE(x) __has_attribute(x)
#else
#define HAVE_ATTRIBUTE(x) 0
#endif
#if HAVE_ATTRIBUTE(aligned) || (defined(__GNUC__) && !defined(__clang__))
#define DATA_ALIGN_ATTRIBUTE __attribute__((aligned(4)))
#else
#define DATA_ALIGN_ATTRIBUTE
#endif

const unsigned char g_sine_model_data[] DATA_ALIGN_ATTRIBUTE = {
  0x18, 0x00, 0x00, 0x00, 0x54, 0x46, 0x4c, 0x33, 0x00, 0x00, 0x0e, 0x00,
  0x18, 0x00, 0x04, 0x00, 0x08, 0x00, 0x0c, 0x00, 0x10, 0x00, 0x14, 0x00,
  0x0e, 0x00, 0x00, 0x00, 0x03, 0x00, 0x00, 0x00, 0xf8, 0x1e, 0x00, 0x00,
  0x0c, 0x00, 0x00, 0x00, 0x10, 0x00, 0x00, 0x00, 0x20, 0x00, 0x00, 0x00,
  0x01, 0x00, 0x00, 0x00, 0x38, 0x18, 0x00, 0x00, 0x0f, 0x00, 0x00, 0x00,
  0x54, 0x4f, 0x43, 0x4f, 0x20, 0x43, 0x6f, 0x6e, 0x76, 0x65, 0x72, 0x74,
  0x65, 0x64, 0x2e, 0x00, 0x11, 0x00, 0x00, 0x00, 0x0c, 0x18, 0x00, 0x00,
  0x58, 0x12, 0x00, 0x00, 0x48, 0x12, 0x00, 0x00, 0x3c, 0x12, 0x00, 0x00,
  0x34, 0x12, 0x00, 0x00, 0x80, 0x0c, 0x00, 0x00, 0x78, 0x0c, 0x00, 0x00,
  0x70, 0x0c, 0x00, 0x00, 0x68, 0x0c, 0x00, 0x00, 0x98, 0x07, 0x00, 0x00,
  0x3c, 0x07, 0x00, 0x00, 0xe0, 0x06, 0x00, 0x00, 0x84, 0x06, 0x00, 0x00,
  0xd0, 0x00, 0x00, 0x00, 0x74, 0x00, 0x00, 0x00, 0x18, 0x00, 0x00, 0x00,
  0x04, 0x00, 0x00, 0x00, 0xee, 0xed, 0xff, 0xff, 0x04, 0x00, 0x00, 0x00,
  0x04, 0x00, 0x00, 0x00, 0xa4, 0xdf, 0x8c, 0xbf, 0xfe, 0xed, 0xff, 0xff,
  0x04, 0x00, 0x00, 0x00, 0x4c, 0x00, 0x00, 0x00, 0xa5, 0x7a, 0xee, 0x3f,
  0x5e, 0x3c, 0xc0, 0x3f, 0xc3, 0xa5, 0xd2, 0xbd, 0x9a, 0xf9, 0xff, 0x3f,
  0xc3, 0x14, 0x70, 0xbd, 0x58, 0x35, 0xea, 0xbe, 0x15, 0x29, 0x8a, 0x3b,
  0xcf, 0xf5, 0xd1, 0xbe, 0xd3, 0xc7, 0xf1, 0x3f, 0xb3, 0x6f, 0xee, 0x3f,
  0x3c, 0x86, 0xf8, 0x3f, 0x66, 0x22, 0xee, 0x3f, 0x3d, 0xd3, 0xd3, 0x3f,
  0x8c, 0x59, 0xe8, 0x3f, 0x74, 0x29, 0x43, 0xbe, 0x94, 0xc1, 0xf8, 0xbd,
  0x0b, 0x4c, 0xb9, 0x3f, 0x15, 0xdb, 0xf7, 0x3f, 0xc7, 0xa7, 0xf0, 0x3f,
  0x56, 0xee, 0xff, 0xff, 0x04, 0x00, 0x00, 0x00, 0x4c, 0x00, 0x00, 0x00,
  0xe2, 0x01, 0x55, 0xbf, 0x2d, 0x34, 0x27, 0xbf, 0x69, 0xc7, 0x08, 0xbd,
  0x80, 0x7c, 0x55, 0xbf, 0x2b, 0xde, 0x3f, 0xbd, 0xf6, 0x9a, 0x13, 0xbd,
  0xad, 0xb5, 0xa5, 0xbc, 0x26, 0x93, 0x4a, 0xbd, 0x2b, 0x44, 0x56, 0xbf,
  0x3b, 0x68, 0x4d, 0xbf, 0x0d, 0xcd, 0x59, 0xbf, 0xd3, 0x76, 0x56, 0xbf,
  0x22, 0x8d, 0x3a, 0xbf, 0xf5, 0xc0, 0x4d, 0xbf, 0xd0, 0xf7, 0x92, 0xbc,
  0xa8, 0x84, 0x00, 0xbd, 0xfd, 0xee, 0x39, 0xbf, 0x24, 0xe0, 0x55, 0xbf,
  0x9c, 0x45, 0x4f, 0xbf, 0xae, 0xee, 0xff, 0xff, 0x04, 0x00, 0x00, 0x00,
  0xa4, 0x05, 0x00, 0x00, 0x55, 0xba, 0xd3, 0x3f, 0x08, 0x04, 0x94, 0x3f,
  0xe6, 0x3f, 0x8a, 0x3e, 0x1a, 0x14, 0xea, 0x3f, 0x64, 0xee, 0xb7, 0x3f,
  0x45, 0x97, 0xef, 0x3f, 0x11, 0x7b, 0xed, 0x3f, 0x18, 0xca, 0xe8, 0x3f,
  0x07, 0xda, 0xbb, 0xbd, 0xad, 0x4f, 0xcd, 0x3f, 0x48, 0x93, 0xa1, 0x3f,
  0xa8, 0xec, 0xc7, 0x3f, 0x28, 0xcf, 0xdf, 0x3f, 0x56, 0x8f, 0x91, 0x3f,
  0x56, 0xa7, 0xe3, 0x3f, 0xfb, 0xae, 0xd4, 0x3f, 0xe3, 0x24, 0xc8, 0x3e,
  0xe3, 0x84, 0xbc, 0x3f, 0x0a, 0x4b, 0xbb, 0x3f, 0x1a, 0x78, 0xc2, 0x3f,
  0x4f, 0xe4, 0xbc, 0x3f, 0x96, 0x21, 0x67, 0x3e, 0x3e, 0x2e, 0xc5, 0x3f,
  0x13, 0x33, 0xbb, 0x3f, 0xeb, 0x85, 0xbf, 0x3f, 0x94, 0xe2, 0x9b, 0x3f,
  0xc3, 0x33, 0x8f, 0x3f, 0xe4, 0xb0, 0xca, 0xbe, 0x7a, 0xbc, 0x99, 0x3f,
  0xf9, 0x0c, 0xba, 0x3f, 0x4f, 0xe4, 0xca, 0x3f, 0xf5, 0xa4, 0xe7, 0x3f,
  0x9d, 0x49, 0xd0, 0x3f, 0x53, 0xa1, 0xd1, 0x3f, 0xae, 0x26, 0xe3, 0x3f,
  0xc3, 0x4f, 0xab, 0x3e, 0x97, 0x59, 0xb6, 0x3f, 0xef, 0x94, 0xb2, 0x3f,
  0xc9, 0xea, 0x63, 0xbe, 0x8b, 0x42, 0xbf, 0xbe, 0x61, 0x97, 0x25, 0x3d,
  0x9b, 0x18, 0xc0, 0x3c, 0x02, 0x38, 0x2e, 0xbe, 0xd3, 0x9f, 0xcc, 0x3d,
  0xb5, 0xcd, 0xac, 0xbc, 0x98, 0x4b, 0xb8, 0x3e, 0x2b, 0xb1, 0xc6, 0xbe,
  0x8d, 0x08, 0x36, 0x3d, 0xa3, 0x02, 0xd1, 0xba, 0xba, 0xeb, 0xb8, 0xbe,
  0x4e, 0x4b, 0xa4, 0xbe, 0xf5, 0xb8, 0xd7, 0xbe, 0x26, 0x1a, 0xac, 0xbd,
  0x35, 0xff, 0xaa, 0x3e, 0x41, 0x8e, 0x90, 0x3e, 0x25, 0x07, 0xb0, 0x3e,
  0xef, 0x14, 0x19, 0xbd, 0x3a, 0xd4, 0xca, 0x3f, 0x17, 0x36, 0x8b, 0x3f,
  0x4f, 0xb4, 0x18, 0x3e, 0xaf, 0xe0, 0xc8, 0x3f, 0x9f, 0x96, 0xcc, 0x3f,
  0x29, 0xf9, 0xe7, 0x3f, 0x9d, 0x70, 0xe7, 0x3f, 0x7e, 0xd6, 0x95, 0x3f,
  0xab, 0x7f, 0x91, 0xbe, 0x36, 0xb2, 0xa5, 0x3f, 0x13, 0x81, 0xd6, 0x3f,
  0x27, 0x7e, 0xc1, 0x3f, 0xb7, 0x27, 0xce, 0x3f, 0x5d, 0x5d, 0xd7, 0x3f,
  0xef, 0x50, 0xc3, 0x3f, 0xa8, 0x08, 0xed, 0x3f, 0x85, 0xe3, 0xa6, 0x3e,
  0xc5, 0xd1, 0x91, 0x3f, 0x5b, 0x4b, 0xa3, 0x3f, 0xc0, 0xd9, 0x4a, 0xbe,
  0x69, 0x30, 0x85, 0x3d, 0xe2, 0xba, 0xb5, 0xbe, 0x6f, 0x93, 0x0d, 0xbe,
  0xb8, 0x37, 0x94, 0xbd, 0x9d, 0x5b, 0xa1, 0x3e, 0xbd, 0x43, 0xc8, 0xbd,
  0x7e, 0x47, 0xec, 0xbd, 0x5e, 0xcd, 0x94, 0x3d, 0x0d, 0xb8, 0x17, 0x3c,
  0x2c, 0x02, 0x0c, 0x3e, 0xc8, 0xdc, 0xee, 0x3d, 0xe4, 0x88, 0x8e, 0x3c,
  0xb8, 0x64, 0x88, 0x3d, 0x46, 0x18, 0x21, 0xbe, 0x4e, 0x92, 0x85, 0xbd,
  0x20, 0x76, 0x07, 0xbe, 0x5a, 0x96, 0x6f, 0xbe, 0xd9, 0x48, 0x07, 0x3e,
  0xac, 0x1a, 0x18, 0xbe, 0x31, 0xd9, 0x06, 0xbe, 0x91, 0xee, 0xe8, 0x3c,
  0x1f, 0xdd, 0xd3, 0xbe, 0x3e, 0xf6, 0x2f, 0xbe, 0x79, 0x24, 0x20, 0xbe,
  0x3e, 0xd9, 0x59, 0xbe, 0xb6, 0x4e, 0x57, 0x3c, 0xb9, 0x23, 0xbe, 0x3e,
  0x98, 0x55, 0x4b, 0xbe, 0x7d, 0x06, 0x34, 0x3e, 0xb0, 0xe8, 0xde, 0xbe,
  0xc2, 0xb1, 0x8b, 0x3e, 0x32, 0x88, 0x44, 0x3e, 0x82, 0x79, 0xde, 0xbe,
  0x95, 0x21, 0x93, 0x3e, 0xd4, 0x9e, 0xd3, 0xbd, 0x33, 0x93, 0x73, 0x3e,
  0x26, 0x12, 0x9f, 0x3e, 0x8d, 0x63, 0x5d, 0xbc, 0xcf, 0x6d, 0xc7, 0xbe,
  0xa8, 0x78, 0xbf, 0x3e, 0x5b, 0x29, 0x9e, 0xbe, 0x28, 0x88, 0xf4, 0x3c,
  0x4c, 0x2d, 0x99, 0x3c, 0xfb, 0xd1, 0xcb, 0xbe, 0xad, 0x1f, 0xa1, 0x3e,
  0xd6, 0x04, 0xb8, 0x3e, 0x47, 0x69, 0xa5, 0xbe, 0xf3, 0x48, 0x2a, 0xbe,
  0xb7, 0xd2, 0x00, 0x3c, 0x5b, 0x09, 0x80, 0x3e, 0x89, 0xca, 0x5e, 0x3e,
  0xb0, 0x3d, 0x24, 0xbe, 0x00, 0xd2, 0x4e, 0x3e, 0x38, 0x80, 0x78, 0xbe,
  0x18, 0xda, 0xd3, 0xbe, 0x84, 0x8b, 0x73, 0xbe, 0xfe, 0x1e, 0x8b, 0xbe,
  0x6c, 0x3c, 0xec, 0xbd, 0x8d, 0x22, 0xe1, 0xbd, 0xa2, 0xeb, 0x11, 0x3e,
  0xea, 0x97, 0x83, 0x3e, 0x69, 0xaa, 0x9a, 0x3e, 0xd9, 0x90, 0x3c, 0x3d,
  0x5c, 0x43, 0x90, 0xbe, 0x00, 0x79, 0x5a, 0xbe, 0xfb, 0x52, 0x87, 0xbe,
  0x06, 0x9a, 0xa6, 0x3d, 0x99, 0x9b, 0x38, 0xbe, 0x05, 0xf7, 0x4e, 0xbd,
  0x7d, 0xbc, 0x8e, 0x3e, 0x99, 0xd7, 0xed, 0xbd, 0x86, 0x97, 0xc7, 0xbe,
  0x89, 0x4e, 0x95, 0x3e, 0x05, 0x50, 0xd0, 0xbe, 0x3e, 0x90, 0xa4, 0xbe,
  0x80, 0x78, 0xb9, 0x3f, 0xeb, 0xad, 0xd1, 0x3f, 0xd8, 0xef, 0x2b, 0x3e,
  0x5f, 0xd3, 0xd5, 0x3f, 0x72, 0x85, 0xc4, 0x3f, 0x89, 0xc7, 0xb2, 0x3f,
  0x84, 0x0c, 0xbb, 0x3f, 0xe2, 0xc8, 0xde, 0x3f, 0x3c, 0x81, 0x1b, 0xbd,
  0xb7, 0xd8, 0xde, 0x3f, 0xb1, 0x4f, 0xcc, 0x3f, 0xd0, 0xc1, 0xb9, 0x3f,
  0xb3, 0x46, 0xe9, 0x3f, 0xcf, 0xcf, 0x8a, 0x3f, 0xf4, 0xf1, 0x93, 0x3f,
  0xe9, 0x55, 0xec, 0x3f, 0x4f, 0xe5, 0x3c, 0xbe, 0x0f, 0xc6, 0xdf, 0x3f,
  0x1f, 0xf5, 0xec, 0x3f, 0x61, 0xed, 0xc4, 0x3f, 0xaf, 0x37, 0x94, 0x3f,
  0x0b, 0x3d, 0x3b, 0xbe, 0x51, 0x1f, 0xf1, 0x3f, 0xe0, 0xa8, 0xbd, 0x3f,
  0xc4, 0x2e, 0xa5, 0x3f, 0x9e, 0xcd, 0x9e, 0x3f, 0xf1, 0x7b, 0xed, 0x3f,
  0x1d, 0x91, 0xa3, 0x3e, 0x11, 0x46, 0xe4, 0x3f, 0xd3, 0x79, 0x84, 0x3f,
  0x2f, 0xe5, 0xd0, 0x3f, 0xd0, 0xfc, 0xea, 0x3f, 0xce, 0xcd, 0xc7, 0x3f,
  0x6d, 0x43, 0xb3, 0x3f, 0xdd, 0x71, 0xc5, 0x3f, 0x54, 0x9d, 0x82, 0xbd,
  0x4f, 0xd7, 0xa9, 0x3f, 0x01, 0xc3, 0x99, 0x3f, 0xa7, 0xfc, 0xc9, 0x3f,
  0x48, 0x7a, 0xe0, 0x3f, 0xed, 0x1b, 0xf5, 0x3d, 0xf1, 0x58, 0x9d, 0x3f,
  0x50, 0x86, 0xbf, 0x3f, 0xf9, 0xaa, 0xc3, 0x3f, 0x51, 0xfb, 0xa0, 0x3f,
  0x05, 0xb7, 0xc4, 0x3f, 0x1a, 0xa1, 0x66, 0xbe, 0x87, 0xbe, 0xe0, 0x3f,
  0xa9, 0xf7, 0xd9, 0x3f, 0xde, 0xb7, 0xc2, 0x3f, 0xed, 0x5e, 0xb8, 0x3f,
  0x85, 0xc0, 0xda, 0x3f, 0x30, 0x6a, 0xd8, 0x3f, 0xe0, 0x95, 0x9d, 0x3f,
  0x01, 0xfc, 0xb4, 0x3e, 0x37, 0x4e, 0x91, 0x3f, 0x09, 0x49, 0xb4, 0x3f,
  0xeb, 0xba, 0xd3, 0x3f, 0x5f, 0x5c, 0xe7, 0x3f, 0x58, 0x05, 0x02, 0xbe,
  0xbf, 0x50, 0xcb, 0x3f, 0x0a, 0x64, 0xed, 0x3f, 0xfd, 0x24, 0xe6, 0x3f,
  0x29, 0x51, 0xa3, 0x3f, 0xed, 0x5a, 0x95, 0x3f, 0xbe, 0xab, 0xe3, 0x3c,
  0xde, 0xc5, 0xb6, 0x3f, 0x00, 0x19, 0x80, 0x3f, 0x2c, 0x41, 0xe9, 0x3f,
  0x08, 0x09, 0xb4, 0x3f, 0x62, 0x87, 0xe9, 0x3f, 0x21, 0x1f, 0xea, 0x3f,
  0x24, 0xc3, 0xab, 0x3f, 0x38, 0xfd, 0x93, 0x3d, 0x15, 0x2f, 0xed, 0x3f,
  0x6e, 0x0c, 0xcc, 0x3f, 0xa8, 0xcc, 0xeb, 0x3f, 0x3f, 0x64, 0xe4, 0x3f,
  0x71, 0xba, 0x5d, 0x3e, 0x81, 0xec, 0xf5, 0x3f, 0x92, 0x1e, 0xc3, 0x3f,
  0x01, 0x72, 0x94, 0x3f, 0xdc, 0x3c, 0xab, 0x3f, 0x6f, 0x1d, 0xcb, 0x3f,
  0xf6, 0x74, 0x92, 0x3e, 0x40, 0x6d, 0xb9, 0x3f, 0xbe, 0xaa, 0x98, 0x3f,
  0x85, 0x5e, 0xb0, 0x3f, 0x42, 0xa2, 0xc1, 0x3f, 0xad, 0x93, 0xc9, 0x3f,
  0x13, 0x8b, 0xec, 0x3f, 0x34, 0xa8, 0xd1, 0x3f, 0xba, 0x9e, 0x6a, 0x3e,
  0xff, 0x48, 0x93, 0x3f, 0x76, 0x1b, 0xb0, 0x3f, 0xf1, 0x19, 0xc8, 0x3f,
  0x57, 0xff, 0xac, 0x3f, 0x8d, 0x4f, 0x65, 0xbe, 0x5c, 0x36, 0xcb, 0x3f,
  0xeb, 0xfd, 0xf0, 0x3f, 0x0d, 0x6d, 0xf2, 0x3f, 0x64, 0xf7, 0xf0, 0x3f,
  0x69, 0xf8, 0x98, 0x3f, 0xf2, 0x6e, 0xc3, 0x3c, 0xb7, 0x9c, 0xc9, 0x3f,
  0xfd, 0x29, 0x93, 0x3f, 0x60, 0x41, 0x99, 0x3f, 0x97, 0xb7, 0xa7, 0x3f,
  0x47, 0xe7, 0xce, 0x3f, 0xe0, 0x86, 0xcd, 0x3f, 0xbd, 0x15, 0xcc, 0x3f,
  0xf0, 0x31, 0xe6, 0xbd, 0xaa, 0x4c, 0xa8, 0x3f, 0xcd, 0xb0, 0xaa, 0x3f,
  0xc8, 0xf3, 0x1e, 0x3d, 0x45, 0xf2, 0x9c, 0x3d, 0xdc, 0xe3, 0x07, 0x3e,
  0x66, 0x5f, 0xd7, 0xbd, 0xb1, 0x34, 0x1e, 0x3e, 0x1a, 0x26, 0x8d, 0xbe,
  0x72, 0x67, 0xf5, 0x3d, 0xc7, 0x4a, 0xa5, 0x3d, 0x3d, 0x06, 0x6c, 0xbe,
  0x73, 0xf4, 0xa6, 0xbe, 0xab, 0xac, 0xa8, 0x3e, 0xa7, 0xd0, 0x24, 0x3e,
  0xd2, 0xba, 0x4f, 0x3e, 0x4c, 0x00, 0x89, 0xbe, 0x26, 0x92, 0x87, 0xbe,
  0x4a, 0x98, 0xcf, 0xbe, 0x6e, 0x50, 0x3d, 0x3e, 0x20, 0x22, 0x91, 0x3d,
  0x8e, 0xa3, 0x9c, 0xbe, 0xf2, 0xf5, 0x2e, 0xbe, 0xd6, 0x60, 0xb3, 0x3e,
  0x4d, 0x52, 0xd7, 0xbd, 0xbf, 0x1a, 0xa8, 0x3e, 0x9b, 0x12, 0xd0, 0xbe,
  0x9c, 0x04, 0x9a, 0x3e, 0x7c, 0x86, 0x7f, 0x3e, 0xd3, 0x77, 0x44, 0x3d,
  0x07, 0x30, 0xbb, 0xbe, 0xe2, 0x41, 0xc5, 0xbe, 0xc5, 0x1b, 0xab, 0x3e,
  0x92, 0x9a, 0xdd, 0xbe, 0x88, 0xf1, 0x31, 0xbe, 0x0e, 0xb5, 0x7c, 0xbd,
  0x46, 0x74, 0x86, 0xbe, 0xb3, 0xbc, 0xd2, 0xbe, 0x59, 0xac, 0x9b, 0xbe,
  0xc4, 0xf8, 0xa5, 0x3e, 0xfb, 0xbf, 0x89, 0x3e, 0xe3, 0xe1, 0xce, 0x3f,
  0x8b, 0x71, 0xd9, 0x3f, 0xc4, 0x67, 0x57, 0xbc, 0x3a, 0x03, 0xc2, 0x3f,
  0x84, 0x4d, 0xaa, 0x3f, 0x20, 0x39, 0xa1, 0x3f, 0xb9, 0x60, 0x97, 0x3f,
  0xb0, 0x5c, 0xd0, 0x3f, 0x44, 0x4a, 0x9c, 0x3d, 0xd8, 0x0b, 0xbd, 0x3f,
  0xed, 0xb9, 0xd8, 0x3f, 0xa2, 0x3f, 0x8b, 0x3f, 0x71, 0x2a, 0x8c, 0x3f,
  0x9c, 0xb0, 0xd5, 0x3f, 0xbc, 0x18, 0xb4, 0x3f, 0x22, 0x4f, 0x9d, 0x3f,
  0x4b, 0xb6, 0xaa, 0x3e, 0xfc, 0x08, 0xde, 0x3f, 0x4e, 0x44, 0x89, 0x3f,
  0x1a, 0xf3, 0xcf, 0x3f, 0x7f, 0x57, 0xb4, 0x3f, 0x92, 0xe0, 0x1c, 0x3c,
  0x33, 0xa1, 0xa4, 0x3f, 0x32, 0xca, 0xa6, 0x3f, 0x4b, 0x65, 0xa7, 0x3f,
  0x5d, 0x90, 0xcd, 0x3f, 0xbf, 0x17, 0xca, 0x3f, 0x31, 0x4f, 0x98, 0xbe,
  0xf9, 0x6d, 0xa8, 0x3f, 0x60, 0x98, 0xaa, 0x3f, 0x41, 0xc7, 0xe5, 0x3f,
  0x00, 0x3e, 0xe7, 0x3f, 0xc7, 0x56, 0xde, 0x3f, 0x05, 0xa6, 0xa3, 0x3f,
  0x62, 0x95, 0xa7, 0x3f, 0x7c, 0xaf, 0x96, 0xbd, 0x38, 0x68, 0xe0, 0x3f,
  0x17, 0xc9, 0xae, 0x3f, 0x6a, 0x14, 0xc0, 0x3f, 0x44, 0xcc, 0xcb, 0x3f,
  0x5e, 0x49, 0xa4, 0xbe, 0xca, 0xe5, 0xf2, 0x3f, 0x88, 0x48, 0xb7, 0x3f,
  0x1c, 0xa8, 0x96, 0x3f, 0xc9, 0xbf, 0x99, 0x3f, 0x74, 0x7c, 0xf0, 0x3f,
  0xd7, 0x69, 0x33, 0xbe, 0x5d, 0x52, 0xe5, 0x3f, 0x81, 0xd4, 0x81, 0x3f,
  0x38, 0xe7, 0x99, 0x3f, 0x6b, 0x49, 0xaa, 0x3f, 0x03, 0x32, 0xe1, 0x3f,
  0xb4, 0x63, 0x9a, 0x3f, 0x1c, 0x8a, 0x96, 0x3f, 0x27, 0x52, 0x85, 0x3e,
  0x1a, 0x05, 0xc8, 0x3f, 0x59, 0xa8, 0xba, 0x3f, 0x5e, 0xf4, 0xff, 0xff,
  0x04, 0x00, 0x00, 0x00, 0x4c, 0x00, 0x00, 0x00, 0x8c, 0x0b, 0xf5, 0xbe,
  0xb8, 0xde, 0xcc, 0xbe, 0x5b, 0xea, 0x35, 0xbd, 0x64, 0xac, 0xe4, 0xbe,
  0xa9, 0x87, 0xe2, 0xbe, 0xcc, 0xb1, 0xe0, 0xbe, 0xbd, 0xec, 0xd7, 0xbe,
  0x4f, 0xc5, 0xdc, 0xbe, 0x78, 0xc6, 0xe4, 0xbc, 0x6d, 0xcb, 0xf7, 0xbe,
  0xb1, 0xc8, 0xf7, 0xbe, 0x3d, 0x2f, 0xdd, 0xbe, 0xf6, 0x21, 0xe2, 0xbe,
  0x95, 0xae, 0xf3, 0xbe, 0xff, 0x0f, 0xeb, 0xbe, 0x13, 0xee, 0xdc, 0xbe,
  0x00, 0x00, 0x00, 0x00, 0x3b, 0xdb, 0xdf, 0xbe, 0xb3, 0x3b, 0xe1, 0xbe,
  0xb6, 0xf4, 0xff, 0xff, 0x04, 0x00, 0x00, 0x00, 0x4c, 0x00, 0x00, 0x00,
  0x90, 0xe1, 0x80, 0xbe, 0xba, 0x95, 0xa4, 0xbe, 0xba, 0x55, 0x9d, 0xbe,
  0xcf, 0x30, 0xa4, 0xbe, 0x74, 0xbf, 0x4d, 0xbe, 0xb6, 0xfe, 0x8d, 0xbe,
  0x43, 0x3b, 0xbc, 0xbe, 0x3d, 0x97, 0x37, 0xbe, 0x02, 0xae, 0x5e, 0xbe,
  0x22, 0xca, 0x44, 0xbe, 0xf7, 0xb9, 0x4f, 0xbe, 0x9f, 0xeb, 0x96, 0xbe,
  0x94, 0xec, 0x32, 0xbe, 0xa4, 0xa8, 0x0d, 0xbf, 0x53, 0x77, 0x1c, 0xbe,
  0x6e, 0x2a, 0x42, 0xbe, 0xb6, 0xb7, 0xee, 0xbe, 0x34, 0x3d, 0x1f, 0xbe,
  0x8f, 0xbf, 0x23, 0xbe, 0x0e, 0xf5, 0xff, 0xff, 0x04, 0x00, 0x00, 0x00,
  0x4c, 0x00, 0x00, 0x00, 0xae, 0x7d, 0x8b, 0xbe, 0x81, 0x00, 0xd6, 0xbf,
  0xb3, 0xb7, 0x44, 0x40, 0x42, 0x2d, 0xf9, 0x3e, 0x0f, 0x93, 0x95, 0xc0,
  0x84, 0x3c, 0x3c, 0x40, 0xe7, 0x19, 0xad, 0x3f, 0x64, 0xf7, 0xb0, 0xbf,
  0xa4, 0xfe, 0x4f, 0x40, 0x13, 0xcd, 0x6f, 0x40, 0x3e, 0xcc, 0xb0, 0xc0,
  0x96, 0x0e, 0x6e, 0xc0, 0x16, 0x70, 0x0a, 0x40, 0xba, 0xfc, 0x06, 0xc0,
  0xb0, 0x5c, 0xc7, 0x3f, 0xd2, 0x80, 0x8e, 0xbf, 0xc5, 0xf6, 0x35, 0xc0,
  0xb3, 0xf9, 0x5c, 0x40, 0xa5, 0x0a, 0x2c, 0x3f, 0x66, 0xf5, 0xff, 0xff,
  0x04, 0x00, 0x00, 0x00, 0xc0, 0x04, 0x00, 0x00, 0x85, 0xff, 0xa9, 0x3c,
  0x99, 0x73, 0xb2, 0x3e, 0xa1, 0x5c, 0x44, 0x3b, 0xf3, 0x67, 0x58, 0xc0,
  0x7a, 0xbb, 0xc9, 0x3e, 0x16, 0xd0, 0x27, 0x3f, 0xf8, 0x6c, 0x2d, 0x3e,
  0x4f, 0xc2, 0x89, 0x3e, 0x9a, 0x9e, 0x03, 0x3f, 0xd2, 0x7c, 0x2c, 0xbe,
  0x5a, 0x4f, 0x06, 0xbe, 0x84, 0x87, 0x27, 0xbf, 0x44, 0xcc, 0x1f, 0xc0,
  0xfa, 0xe0, 0x1c, 0xbe, 0xaf, 0xd3, 0xc0, 0x3e, 0x85, 0x59, 0x92, 0xbe,
  0xff, 0x7d, 0xbf, 0xbe, 0x76, 0x9e, 0x0d, 0x3f, 0xbe, 0x7b, 0x71, 0x3f,
  0x60, 0xb9, 0x98, 0xbe, 0x73, 0x74, 0x30, 0x3f, 0xfa, 0xac, 0x41, 0x3f,
  0xa0, 0xfa, 0x1b, 0x3d, 0xcb, 0x4e, 0xdb, 0x3f, 0x8b, 0x74, 0x08, 0x40,
  0x09, 0xe9, 0x66, 0x3f, 0xd4, 0x19, 0xb7, 0xbe, 0x9a, 0x8e, 0x28, 0x3f,
  0x11, 0x9d, 0xa1, 0x3e, 0x84, 0x58, 0x93, 0xbf, 0xd9, 0xaf, 0x9d, 0x3f,
  0x87, 0x0d, 0x8c, 0x3d, 0xa6, 0x7d, 0x1b, 0xbf, 0x53, 0x4e, 0x1a, 0x3f,
  0x9c, 0xb1, 0x20, 0x3f, 0x28, 0xa7, 0xdb, 0x3d, 0xec, 0x0d, 0x86, 0xbf,
  0x40, 0x71, 0xd7, 0x3e, 0x72, 0x24, 0x88, 0xbf, 0xf0, 0x39, 0x28, 0xbe,
  0xd4, 0x81, 0x1d, 0x3f, 0x61, 0x1f, 0xb8, 0x3e, 0x77, 0x22, 0x72, 0x3e,
  0xba, 0x38, 0x0c, 0x3f, 0xbf, 0x10, 0x68, 0x3e, 0x30, 0xaa, 0x13, 0xbf,
  0xa0, 0x79, 0xfa, 0x3e, 0x3b, 0xf3, 0x01, 0x3f, 0xfd, 0x60, 0xe7, 0xbd,
  0xf5, 0xd9, 0x08, 0x3f, 0xce, 0xaf, 0x8c, 0x3f, 0xb1, 0xfd, 0x7d, 0x3e,
  0xae, 0x64, 0x23, 0x3e, 0xb1, 0x75, 0x49, 0x3f, 0x71, 0xea, 0xa2, 0xbe,
  0xc8, 0x9f, 0x85, 0x3f, 0x8a, 0x8f, 0xdd, 0x3f, 0x60, 0x3d, 0x8a, 0x3f,
  0x82, 0x8e, 0xa2, 0x3e, 0x19, 0x72, 0x0b, 0x40, 0xe9, 0xed, 0x80, 0x3f,
  0x77, 0x1a, 0x37, 0xbf, 0x89, 0xe0, 0x40, 0x3f, 0xb0, 0xcf, 0x85, 0x3f,
  0x9d, 0x73, 0xf7, 0xbe, 0x4f, 0x45, 0xb4, 0x3e, 0xbe, 0xc2, 0x16, 0x3f,
  0x22, 0x9d, 0x82, 0xbd, 0xbc, 0x1b, 0x04, 0x3e, 0x2e, 0x84, 0x04, 0x3f,
  0xf6, 0x15, 0x21, 0x3f, 0xd3, 0x44, 0xdc, 0x3e, 0xed, 0x2c, 0x99, 0x3f,
  0x6a, 0x9b, 0x65, 0x3f, 0xbf, 0x24, 0xd9, 0x3e, 0xd1, 0x85, 0x56, 0x3e,
  0x6b, 0xe7, 0x9c, 0x3f, 0x6a, 0xf2, 0xf7, 0xbe, 0x39, 0xb5, 0xb2, 0x3f,
  0x16, 0x93, 0x0f, 0xc0, 0xfc, 0xa0, 0x7c, 0x3e, 0xba, 0x77, 0x4d, 0xbf,
  0x96, 0x80, 0x99, 0xbe, 0xa5, 0x9f, 0x4f, 0x3d, 0x54, 0xdf, 0xa8, 0x3f,
  0x65, 0xa0, 0x3f, 0xc0, 0xa1, 0x33, 0x31, 0x3f, 0x22, 0x71, 0x07, 0x3f,
  0x68, 0x50, 0x6c, 0x3c, 0x92, 0xd2, 0x14, 0xbf, 0x09, 0x92, 0xee, 0x3c,
  0xe5, 0xe4, 0x09, 0xbf, 0x68, 0xfe, 0x32, 0xc0, 0x9b, 0x86, 0xc9, 0x3f,
  0x1a, 0xe3, 0x34, 0xbe, 0xfd, 0x80, 0x00, 0x3f, 0x84, 0xeb, 0x69, 0xbe,
  0x5a, 0xa7, 0xd6, 0xbe, 0xfc, 0xc0, 0x55, 0x3f, 0xb0, 0xb5, 0xc5, 0x3d,
  0x1b, 0x98, 0xaf, 0x3f, 0x21, 0x7e, 0xfd, 0x3e, 0xfb, 0x38, 0xe6, 0xbd,
  0xfb, 0xd2, 0x07, 0xbe, 0x49, 0x6e, 0x94, 0x3f, 0xba, 0x22, 0x85, 0x3f,
  0x2e, 0x3c, 0x12, 0xbf, 0x92, 0x8b, 0xb2, 0xbe, 0xa0, 0x6f, 0x4d, 0x3e,
  0xed, 0xbc, 0x88, 0x3e, 0x78, 0x3d, 0x1f, 0x3e, 0x2f, 0x4f, 0xe5, 0xbe,
  0x89, 0xe8, 0x1a, 0xbf, 0x96, 0xae, 0xe0, 0x3e, 0x52, 0xf8, 0xf6, 0x3d,
  0x55, 0x74, 0xff, 0xbf, 0x0d, 0x54, 0xe5, 0xbe, 0xd3, 0x41, 0xd0, 0xbf,
  0xdf, 0xac, 0xe0, 0x3e, 0x04, 0x8c, 0xee, 0xbd, 0xfa, 0x5f, 0x5a, 0x3f,
  0xf8, 0xc2, 0xb5, 0x3e, 0xdd, 0x13, 0xd9, 0x3e, 0x85, 0x3c, 0x04, 0x3f,
  0x21, 0xaa, 0x0b, 0x40, 0x38, 0x5f, 0x2b, 0x3f, 0xdf, 0x2a, 0x81, 0x3e,
  0x32, 0xdd, 0xcc, 0xbf, 0x24, 0x53, 0x28, 0x3f, 0x4b, 0x5f, 0xb4, 0x3e,
  0xb3, 0x1f, 0x4d, 0xbf, 0x77, 0xcc, 0x50, 0x3f, 0x30, 0x0e, 0x59, 0xbd,
  0xcc, 0x92, 0x4d, 0xc0, 0x5c, 0xc8, 0x9f, 0x3e, 0x74, 0x14, 0x26, 0xbe,
  0x49, 0x6c, 0x76, 0xbe, 0xcc, 0xc1, 0x57, 0xbf, 0x99, 0xbf, 0x12, 0xbf,
  0x38, 0x09, 0xdc, 0x3f, 0xd1, 0x70, 0x86, 0x3e, 0x90, 0x2a, 0x0c, 0xbf,
  0x0a, 0xfe, 0xc4, 0xbd, 0x0e, 0xe1, 0xe0, 0xbe, 0x9a, 0x8b, 0xc9, 0xbe,
  0x61, 0xec, 0x8e, 0xbd, 0xe5, 0x91, 0x98, 0x3f, 0x83, 0x72, 0x7e, 0x3b,
  0x5d, 0xa7, 0x49, 0xbf, 0x65, 0xd1, 0x89, 0x3d, 0x0e, 0x17, 0xab, 0x3b,
  0x6d, 0x92, 0xb5, 0xbe, 0x7d, 0xf9, 0x80, 0x3f, 0x35, 0xda, 0x3b, 0x3f,
  0x97, 0xca, 0xe5, 0x3e, 0x04, 0xe1, 0x2f, 0x3d, 0x35, 0x78, 0xf6, 0xbe,
  0x61, 0xbd, 0x23, 0xbf, 0xa3, 0x05, 0x33, 0x3f, 0xbc, 0x53, 0xa7, 0xba,
  0x13, 0x44, 0x14, 0x3e, 0xb2, 0xb1, 0x84, 0x3e, 0xc3, 0xef, 0xd1, 0x3e,
  0xdf, 0xb6, 0xc7, 0xbf, 0xc7, 0xeb, 0x8e, 0xbf, 0xbc, 0x77, 0x19, 0x3e,
  0xd1, 0xbe, 0x17, 0x3f, 0x6e, 0x93, 0x3f, 0x3e, 0x53, 0x26, 0xb2, 0x3f,
  0x6e, 0x3d, 0xa4, 0x3f, 0x2c, 0x29, 0xab, 0xbc, 0x5a, 0x78, 0x15, 0xc0,
  0x35, 0x84, 0x26, 0x3d, 0x71, 0x03, 0x48, 0xc0, 0xec, 0x62, 0x93, 0x3f,
  0x72, 0x86, 0xac, 0xbf, 0x74, 0x31, 0x69, 0xbe, 0x35, 0x67, 0x56, 0x3e,
  0xbe, 0x22, 0x6d, 0x3f, 0x0c, 0xbe, 0xa8, 0xc0, 0xb8, 0x29, 0x95, 0x3e,
  0x03, 0x74, 0xdb, 0x3e, 0x2e, 0xd9, 0x88, 0xbe, 0xb3, 0xab, 0xd0, 0x3c,
  0xab, 0x24, 0xe5, 0x3f, 0x82, 0x4e, 0x87, 0x3f, 0x6e, 0xc0, 0xde, 0x3e,
  0x1b, 0x9d, 0xdd, 0xbf, 0xd7, 0x53, 0x6e, 0x3e, 0xfd, 0x9c, 0x05, 0x3e,
  0xf3, 0x3c, 0x6d, 0x3f, 0x79, 0x89, 0x3a, 0xc0, 0x0a, 0xc6, 0x70, 0xbf,
  0xd0, 0xed, 0x28, 0x3f, 0xe0, 0x2f, 0x2e, 0x3f, 0xeb, 0xb3, 0xaa, 0x3d,
  0x17, 0xe4, 0x02, 0xbf, 0x38, 0x3c, 0xcc, 0x3e, 0xac, 0x19, 0x86, 0xbe,
  0x7c, 0x9f, 0xcf, 0x3e, 0xf5, 0x36, 0x5d, 0x3f, 0x4c, 0x04, 0x68, 0x3f,
  0xb8, 0x86, 0x0d, 0x3f, 0xef, 0xd6, 0x7c, 0x3f, 0xa7, 0x7f, 0x02, 0x3f,
  0xca, 0x14, 0xb7, 0xbf, 0xee, 0x74, 0x6d, 0x3f, 0x67, 0xf6, 0x8c, 0x3f,
  0x34, 0xb4, 0x3b, 0x3e, 0x24, 0x60, 0x22, 0xbf, 0x9b, 0x5c, 0x6d, 0x3f,
  0x93, 0x1c, 0x4d, 0xbe, 0x75, 0x63, 0x8a, 0xbf, 0x3f, 0x0a, 0x51, 0x3e,
  0xc2, 0x2e, 0xee, 0xbe, 0x56, 0xb1, 0x05, 0xbf, 0x39, 0x06, 0x40, 0x3f,
  0x4b, 0x8b, 0x2a, 0x3f, 0x7c, 0x88, 0xb0, 0xbe, 0x9f, 0x81, 0x4d, 0xc0,
  0x93, 0x5c, 0x86, 0xbd, 0xe0, 0xd9, 0x01, 0xc0, 0x53, 0x8c, 0x5d, 0x3f,
  0xe9, 0xc7, 0x18, 0xbf, 0x9a, 0x88, 0x32, 0xbe, 0x14, 0xa1, 0x5b, 0x3e,
  0xdd, 0x98, 0xa9, 0x3e, 0x03, 0xab, 0x17, 0xc0, 0x52, 0x7f, 0xa7, 0xbe,
  0xeb, 0x46, 0x1f, 0x3f, 0xa4, 0xc1, 0x87, 0xbe, 0x0a, 0xf2, 0x78, 0xbd,
  0x99, 0x05, 0xbe, 0x3e, 0xf6, 0x4e, 0x5e, 0x3f, 0x4c, 0x34, 0x6a, 0x3e,
  0x53, 0x4f, 0x4f, 0xbf, 0x76, 0xef, 0xa2, 0xbf, 0x2d, 0x9e, 0x8d, 0xbe,
  0xd1, 0x35, 0x98, 0x3f, 0x59, 0xbe, 0x4c, 0xbe, 0xc4, 0xc6, 0x22, 0x3e,
  0x4e, 0xea, 0x75, 0x3e, 0x49, 0x9e, 0xea, 0x3d, 0x5e, 0x0d, 0x7f, 0x3e,
  0x0c, 0xbd, 0x7a, 0x3f, 0xa5, 0x4b, 0xc0, 0x3e, 0xd3, 0xa4, 0x98, 0xbe,
  0x27, 0x45, 0xf5, 0xbd, 0x1f, 0x3e, 0x9e, 0x3f, 0x4a, 0x79, 0x78, 0x3f,
  0xb8, 0x3e, 0x37, 0xbd, 0x00, 0xed, 0xb0, 0x3d, 0x7e, 0xf3, 0x92, 0x3f,
  0xf8, 0x0a, 0x30, 0xbe, 0x98, 0x24, 0x33, 0x3f, 0xca, 0x65, 0xa1, 0xbf,
  0x91, 0xee, 0x93, 0xbd, 0x8f, 0x45, 0x4d, 0x3e, 0xad, 0x83, 0xaa, 0x3e,
  0x1d, 0x95, 0x90, 0xbd, 0xfe, 0xac, 0x20, 0xc0, 0x5a, 0x6c, 0xd4, 0x3e,
  0x47, 0x42, 0x14, 0x3d, 0x5d, 0x9f, 0x58, 0x3f, 0x66, 0x8e, 0x92, 0x3f,
  0x4f, 0xe2, 0x9f, 0x3f, 0x41, 0xc2, 0xea, 0xbd, 0x11, 0xf4, 0x49, 0xbf,
  0x2b, 0x2f, 0x06, 0x3f, 0xe8, 0x88, 0x15, 0xc0, 0x78, 0x38, 0x4f, 0x3f,
  0x60, 0xb4, 0x7c, 0xbc, 0x2e, 0x1c, 0x92, 0x3e, 0x43, 0xb1, 0xcd, 0x3e,
  0xef, 0x07, 0xb2, 0x3d, 0xbd, 0x36, 0x9e, 0xbd, 0x85, 0x6a, 0x9a, 0xbe,
  0xd3, 0xa5, 0x60, 0x3f, 0x44, 0x26, 0x56, 0xbe, 0xb1, 0xac, 0x70, 0x3d,
  0x4a, 0x15, 0x20, 0x3f, 0x60, 0x6f, 0x88, 0x3f, 0x40, 0x79, 0x23, 0x3f,
  0xe1, 0x35, 0x37, 0xbf, 0x9f, 0xac, 0x0b, 0xc0, 0x5f, 0x48, 0xb9, 0xbe,
  0xec, 0x31, 0xa5, 0x3f, 0x85, 0x82, 0x66, 0xbe, 0x71, 0x42, 0x70, 0xbe,
  0x74, 0xeb, 0xb0, 0x3e, 0xc2, 0x94, 0x03, 0xbf, 0x89, 0x99, 0xd3, 0xbd,
  0x34, 0x86, 0x0d, 0xbe, 0x9b, 0x4d, 0xab, 0xbf, 0x56, 0x0d, 0xe6, 0x3f,
  0xa9, 0x11, 0x26, 0x3f, 0x46, 0x2b, 0x92, 0x3f, 0x43, 0x5a, 0xd6, 0x3d,
  0x32, 0x50, 0xc1, 0x3e, 0x68, 0xfd, 0x87, 0xbf, 0xbf, 0x46, 0x26, 0x3d,
  0x9e, 0x2b, 0x08, 0xbf, 0x1f, 0xcd, 0xb9, 0x3e, 0xad, 0x19, 0xca, 0xbf,
  0xcc, 0xee, 0xff, 0xff, 0xd0, 0xee, 0xff, 0xff, 0xd4, 0xee, 0xff, 0xff,
  0x3e, 0xfa, 0xff, 0xff, 0x04, 0x00, 0x00, 0x00, 0xa4, 0x05, 0x00, 0x00,
  0x9c, 0xbc, 0x9e, 0x3f, 0xad, 0x6b, 0xdf, 0x3f, 0x51, 0x4f, 0x8c, 0x3f,
  0x1d, 0x0c, 0xc0, 0x3f, 0xaf, 0x4b, 0xd0, 0x3f, 0xb1, 0x3c, 0xf2, 0x3f,
  0x7b, 0x96, 0xbe, 0x3f, 0x71, 0x6c, 0x7e, 0x3f, 0xcc, 0xcf, 0xcb, 0x3f,
  0xac, 0x17, 0xdd, 0x3f, 0x3e, 0x57, 0xe3, 0x3f, 0xeb, 0x2f, 0x8f, 0x3f,
  0x66, 0x26, 0xc2, 0x3f, 0x7e, 0xf4, 0xa6, 0x3f, 0x31, 0x75, 0xc0, 0x3f,
  0xf3, 0xdd, 0xe0, 0x3f, 0x62, 0x36, 0x5f, 0x3f, 0x7e, 0x08, 0xd8, 0x3f,
  0xd7, 0x23, 0xc9, 0x3f, 0x68, 0x78, 0xc6, 0x3f, 0xd5, 0x07, 0x8e, 0x3f,
  0xce, 0x12, 0x99, 0x3f, 0xea, 0xc6, 0xa2, 0x3f, 0xc0, 0x28, 0xa7, 0x3f,
  0x0e, 0x63, 0xcc, 0x3f, 0xa5, 0x65, 0xb0, 0x3f, 0x3b, 0x92, 0xda, 0x3f,
  0x37, 0x59, 0xb0, 0x3f, 0x76, 0xca, 0xc3, 0x3f, 0xb4, 0x8c, 0xd5, 0x3f,
  0x17, 0xe6, 0xae, 0x3f, 0x31, 0x7e, 0x82, 0x3f, 0xce, 0x28, 0xaa, 0x3f,
  0x47, 0x78, 0xc5, 0x3f, 0xaa, 0xbe, 0xe7, 0x3f, 0x78, 0x1e, 0xbd, 0x3f,
  0x59, 0x4f, 0xd8, 0x3f, 0xd2, 0xca, 0x98, 0x3f, 0x10, 0x16, 0x3e, 0xbe,
  0xad, 0x6f, 0xd2, 0xbe, 0xf8, 0x1c, 0x1a, 0xbe, 0x79, 0xbf, 0xa1, 0xbb,
  0xe1, 0xaf, 0xfd, 0x3d, 0x69, 0x1b, 0xa2, 0x3e, 0x93, 0x91, 0xa2, 0xbe,
  0x34, 0x25, 0x85, 0x3e, 0x97, 0x59, 0x14, 0xbe, 0x2f, 0x9a, 0x20, 0xbd,
  0x1a, 0xed, 0x7d, 0xbe, 0xa3, 0x5d, 0x18, 0x3e, 0xe6, 0xdc, 0xce, 0xbe,
  0x17, 0x03, 0x27, 0x3e, 0x8c, 0x58, 0x5b, 0x3d, 0x0d, 0x70, 0x46, 0x3e,
  0x40, 0x81, 0x27, 0xbe, 0x2e, 0x0b, 0x00, 0xbe, 0xc2, 0x75, 0xbc, 0xbe,
  0x3c, 0x1a, 0xa7, 0x3f, 0xa0, 0xf0, 0x95, 0x3f, 0xf8, 0xdb, 0xac, 0x3f,
  0xdd, 0x2c, 0xc9, 0x3f, 0x38, 0xe0, 0x9f, 0x3f, 0x2c, 0x77, 0xcb, 0x3f,
  0x12, 0xf7, 0xc7, 0x3f, 0x69, 0x5f, 0x9f, 0x3f, 0xc5, 0xb5, 0xc8, 0x3f,
  0x0e, 0xbc, 0xe4, 0x3f, 0xbf, 0x81, 0xa9, 0x3f, 0x42, 0x91, 0xa2, 0x3f,
  0x2d, 0x6b, 0x81, 0x3f, 0xc5, 0x93, 0x8d, 0x3f, 0x26, 0x7f, 0xcd, 0x3f,
  0x38, 0xf2, 0xd0, 0x3f, 0xe0, 0xdd, 0x9d, 0x3f, 0xe5, 0x3c, 0x86, 0x3f,
  0xe4, 0xac, 0xb2, 0x3f, 0xf8, 0x65, 0xe8, 0x3f, 0x72, 0x53, 0x93, 0x3f,
  0x74, 0x5d, 0xe9, 0x3f, 0xeb, 0xed, 0xe2, 0x3f, 0x02, 0xb6, 0xd1, 0x3f,
  0xf4, 0x78, 0xd4, 0x3f, 0x40, 0x8c, 0x94, 0x3f, 0x4e, 0x68, 0x8a, 0x3f,
  0x55, 0xa8, 0xcf, 0x3f, 0x34, 0x9f, 0xd9, 0x3f, 0x48, 0xf0, 0xe7, 0x3f,
  0x4b, 0x52, 0xda, 0x3f, 0xe9, 0x3f, 0x8a, 0x3f, 0x69, 0x02, 0x83, 0x3f,
  0x3c, 0xfc, 0x96, 0x3f, 0x0e, 0x80, 0xa1, 0x3f, 0x63, 0x98, 0xab, 0x3f,
  0x08, 0x39, 0xd7, 0x3f, 0xc7, 0xbf, 0xf1, 0x3f, 0xc5, 0x9d, 0x99, 0x3f,
  0x80, 0xc3, 0xc1, 0x3f, 0x9a, 0xea, 0xaa, 0x3f, 0xae, 0x84, 0xca, 0x3f,
  0x80, 0x8f, 0xe1, 0x3f, 0xae, 0xbd, 0x93, 0x3f, 0xab, 0xb3, 0xad, 0x3f,
  0xee, 0x12, 0xac, 0x3f, 0x29, 0x2b, 0xe6, 0x3f, 0x91, 0x33, 0xd8, 0x3f,
  0x89, 0xd3, 0xcd, 0x3f, 0x34, 0x45, 0x91, 0x3f, 0x05, 0x6d, 0x85, 0x3f,
  0xbe, 0xeb, 0xc5, 0x3f, 0x45, 0x17, 0xb6, 0x3f, 0xd6, 0xe5, 0x9e, 0x3f,
  0x1f, 0x34, 0x9f, 0x3f, 0x81, 0xf4, 0x83, 0x3f, 0xad, 0x8b, 0xb6, 0x3f,
  0x95, 0x77, 0xa9, 0x3f, 0xad, 0x1b, 0xda, 0x3f, 0xd6, 0xa1, 0xac, 0x3f,
  0x0b, 0x15, 0xe7, 0x3f, 0xc6, 0xd6, 0xe7, 0x3f, 0xc6, 0xdf, 0x95, 0x3f,
  0xf1, 0x74, 0x91, 0x3f, 0xe5, 0xaf, 0x9c, 0x3f, 0xc9, 0x97, 0xd5, 0x3f,
  0xd2, 0xe6, 0xae, 0x3f, 0x22, 0xd8, 0xd6, 0x3f, 0x34, 0xc0, 0xde, 0x3f,
  0x63, 0x67, 0x94, 0x3f, 0x80, 0xaa, 0x85, 0x3f, 0x58, 0xbd, 0x9b, 0x3f,
  0x69, 0xdc, 0xd7, 0x3f, 0x88, 0xf9, 0x99, 0x3f, 0x52, 0xd1, 0xd5, 0x3f,
  0x26, 0x64, 0xc4, 0x3f, 0x0d, 0xc8, 0xe0, 0x3f, 0x1b, 0xec, 0x93, 0x3f,
  0xf9, 0x4e, 0xae, 0x3f, 0xf6, 0x6d, 0x8a, 0x3f, 0xdb, 0xf2, 0xe3, 0x3f,
  0x12, 0x03, 0xba, 0x3f, 0xa2, 0x52, 0xb1, 0x3f, 0x9f, 0xd3, 0xb3, 0x3f,
  0x7f, 0x1f, 0xa4, 0x3f, 0xd4, 0xd5, 0x99, 0x3f, 0x37, 0x96, 0xea, 0x3f,
  0xaf, 0x13, 0xbc, 0x3f, 0x45, 0x4a, 0xb2, 0x3f, 0xdd, 0x11, 0x9a, 0x3f,
  0x87, 0x65, 0x98, 0x3f, 0x19, 0x78, 0x98, 0x3f, 0x2b, 0x7a, 0x9c, 0x3f,
  0x86, 0x29, 0x8f, 0x3f, 0xef, 0x1e, 0xc7, 0x3f, 0x1f, 0x86, 0x40, 0xbe,
  0xfa, 0x52, 0x40, 0x3e, 0x15, 0x62, 0xc8, 0xbe, 0xa8, 0xe4, 0x8f, 0xbe,
  0x69, 0x9f, 0xbd, 0x3e, 0x30, 0xbf, 0xf9, 0x39, 0xa6, 0x42, 0x63, 0x3e,
  0x67, 0x47, 0x21, 0x3d, 0x89, 0xd5, 0x8a, 0xbe, 0x5d, 0x3d, 0x08, 0x3e,
  0xaf, 0x39, 0x31, 0xbe, 0x2e, 0x62, 0x25, 0x3e, 0x0d, 0x6e, 0xbb, 0xbe,
  0x3a, 0x1c, 0xc8, 0xbe, 0x9e, 0xa1, 0xad, 0xbe, 0xca, 0x66, 0xc9, 0xbc,
  0xf5, 0x62, 0xc6, 0xbc, 0xa3, 0x70, 0x11, 0x3e, 0x00, 0x58, 0xf6, 0x3d,
  0x20, 0x44, 0xc9, 0x3f, 0xa7, 0x40, 0x94, 0x3f, 0xc5, 0x71, 0xab, 0x3f,
  0xd9, 0x8b, 0xc2, 0x3f, 0xf7, 0xf9, 0xd8, 0x3f, 0x61, 0x26, 0xc2, 0x3f,
  0xea, 0x10, 0xa5, 0x3f, 0x31, 0x7a, 0xdb, 0x3f, 0x58, 0x96, 0xe6, 0x3f,
  0x4d, 0x7a, 0x88, 0x3f, 0x5b, 0xf8, 0xa6, 0x3f, 0x57, 0x94, 0xe4, 0x3f,
  0x73, 0x59, 0xcf, 0x3f, 0x10, 0x8a, 0x79, 0x3f, 0xec, 0x58, 0xc7, 0x3f,
  0xb1, 0x5b, 0xdb, 0x3f, 0x9d, 0xcb, 0x8f, 0x3f, 0xf9, 0xab, 0xce, 0x3f,
  0xbe, 0xa8, 0x97, 0x3f, 0x5e, 0xea, 0xd6, 0x3f, 0xc4, 0xcf, 0xb9, 0x3f,
  0xff, 0x68, 0xb9, 0x3f, 0x0f, 0x89, 0xb8, 0x3f, 0x69, 0xb1, 0xcd, 0x3f,
  0x43, 0x54, 0xc6, 0x3f, 0x60, 0xbc, 0x84, 0x3f, 0xd9, 0x20, 0x5a, 0x3f,
  0x43, 0xd6, 0xae, 0x3f, 0x91, 0xfa, 0x76, 0x3f, 0x21, 0x50, 0x8a, 0x3f,
  0x7e, 0x78, 0xa1, 0x3f, 0xb1, 0x62, 0x75, 0x3f, 0xbd, 0x16, 0xbe, 0x3f,
  0x5e, 0x48, 0x99, 0x3f, 0x75, 0x91, 0xbf, 0x3f, 0xf1, 0x0b, 0x83, 0x3f,
  0x1a, 0xea, 0xb1, 0x3f, 0x76, 0xbd, 0xe1, 0x3f, 0x5c, 0x8e, 0xad, 0x3f,
  0x18, 0xc3, 0x92, 0x3f, 0xf0, 0xba, 0x8c, 0x3f, 0x33, 0x7f, 0xb5, 0x3f,
  0x81, 0x7a, 0x8f, 0x3f, 0x5c, 0x0d, 0xbb, 0x3f, 0xf7, 0x10, 0xbf, 0x3f,
  0x35, 0x04, 0xbb, 0x3f, 0x18, 0x5d, 0xcc, 0x3f, 0x3f, 0x5d, 0xed, 0x3f,
  0x20, 0xb6, 0xda, 0x3f, 0xb6, 0xa7, 0x96, 0x3f, 0x92, 0x3e, 0xb7, 0x3f,
  0x0f, 0x40, 0xcc, 0x3f, 0x77, 0x3b, 0xa3, 0x3f, 0x3a, 0x9d, 0xa2, 0x3f,
  0x75, 0x7e, 0xb3, 0x3f, 0xf7, 0xc5, 0x92, 0x3f, 0x7c, 0xbb, 0xc7, 0x3f,
  0x40, 0x84, 0xb1, 0x3f, 0x93, 0x62, 0xa6, 0x3f, 0x0d, 0x21, 0xcb, 0x3f,
  0xa7, 0x6d, 0x9f, 0x3f, 0x1e, 0x22, 0xcf, 0x3f, 0x27, 0x7c, 0xa5, 0x3f,
  0xf8, 0x5b, 0xa7, 0x3f, 0x98, 0x0a, 0x9c, 0x3f, 0xc7, 0xf6, 0xe2, 0x3f,
  0x69, 0x41, 0xac, 0x3f, 0xaa, 0x4b, 0x9e, 0x3f, 0x92, 0xd0, 0xc2, 0x3f,
  0xd8, 0x49, 0xab, 0x3f, 0xec, 0xc6, 0x87, 0x3f, 0xf2, 0x61, 0x94, 0x3f,
  0x5b, 0x42, 0xa1, 0x3f, 0x32, 0x25, 0x88, 0x3f, 0x14, 0xb8, 0xbd, 0x3f,
  0x81, 0x3b, 0xe6, 0x3f, 0x0c, 0x09, 0xe4, 0x3f, 0xb1, 0x5d, 0xbe, 0x3f,
  0xcf, 0xd1, 0xcb, 0x3f, 0x34, 0x9b, 0x86, 0x3f, 0xfc, 0x0d, 0xee, 0x3f,
  0x7e, 0x6a, 0xa2, 0x3f, 0x77, 0x6b, 0xae, 0x3f, 0x40, 0x79, 0xaa, 0x3f,
  0x2a, 0x14, 0xe1, 0x3f, 0x30, 0xba, 0xe8, 0x3f, 0x24, 0x64, 0xac, 0x3f,
  0x7f, 0x1b, 0x96, 0x3f, 0xbe, 0x86, 0xd9, 0x3f, 0xed, 0x1f, 0x9c, 0x3f,
  0x07, 0x7c, 0xd8, 0x3f, 0x6c, 0x14, 0xd8, 0x3f, 0x6b, 0xe0, 0x87, 0x3f,
  0x7c, 0xf7, 0x98, 0x3f, 0x34, 0x4f, 0xa6, 0x3f, 0x8c, 0xde, 0x9a, 0x3f,
  0x9d, 0xe1, 0xb1, 0x3f, 0xa3, 0xe4, 0xb3, 0x3f, 0x90, 0xd5, 0x84, 0x3f,
  0xe5, 0xbe, 0xc1, 0x3f, 0x4f, 0x1c, 0xab, 0x3f, 0xab, 0x7c, 0x99, 0x3f,
  0x0f, 0xe0, 0xcf, 0x3f, 0xe2, 0x84, 0xef, 0x3f, 0xc6, 0xf0, 0x8d, 0x3f,
  0xe9, 0x8d, 0xd6, 0x3f, 0x47, 0x1b, 0xc2, 0x3f, 0xa0, 0x31, 0xab, 0x3f,
  0x35, 0x0c, 0xa8, 0x3f, 0x32, 0x92, 0xca, 0x3f, 0x01, 0x40, 0xae, 0x3f,
  0x23, 0xd7, 0x99, 0x3f, 0xa5, 0xd9, 0xa3, 0x3f, 0x9f, 0xb7, 0xd9, 0x3f,
  0x85, 0x49, 0xb1, 0x3f, 0x56, 0x6c, 0xde, 0x3f, 0xc3, 0x6b, 0xb7, 0x3f,
  0x0d, 0x7a, 0x8b, 0x3f, 0xe6, 0xbf, 0xce, 0x3f, 0xb1, 0x6c, 0xae, 0x3f,
  0xef, 0xb2, 0x89, 0x3f, 0xab, 0xac, 0xcb, 0x3f, 0x76, 0x0d, 0x92, 0x3f,
  0xd9, 0x91, 0x8e, 0x3f, 0x64, 0x3a, 0x98, 0x3f, 0x83, 0x89, 0xc9, 0x3f,
  0x9a, 0x45, 0xa8, 0x3f, 0x97, 0xff, 0x79, 0x3f, 0xe1, 0xf7, 0xda, 0x3f,
  0x60, 0x51, 0xe4, 0x3f, 0xb0, 0xd7, 0xaa, 0x3f, 0x67, 0x50, 0xa6, 0x3f,
  0x10, 0xa5, 0xef, 0x3f, 0x2d, 0x02, 0x91, 0x3e, 0xf6, 0x52, 0x38, 0xbe,
  0x90, 0x5f, 0x17, 0xbe, 0xe8, 0x28, 0x58, 0xbe, 0x11, 0x44, 0x8a, 0x3e,
  0xf0, 0x04, 0xda, 0xbd, 0xa0, 0xf5, 0x60, 0xbd, 0x86, 0x74, 0xc7, 0xbe,
  0x7c, 0x9a, 0xe3, 0xbd, 0x70, 0xf2, 0x78, 0x3d, 0x40, 0xec, 0x08, 0xbc,
  0x15, 0x54, 0xb6, 0xbe, 0xec, 0x8f, 0x84, 0xbe, 0xb2, 0x93, 0x7a, 0x3e,
  0x08, 0x20, 0x9a, 0xbe, 0x40, 0xc8, 0xf5, 0xbb, 0x54, 0xc7, 0x71, 0xbe,
  0xeb, 0xbd, 0xa4, 0x3e, 0xc6, 0x40, 0x58, 0xbe, 0xd8, 0xb6, 0xc2, 0x3f,
  0xa8, 0xd6, 0xa7, 0x3f, 0x94, 0x89, 0xcc, 0x3f, 0x6a, 0xd2, 0xa2, 0x3f,
  0xa5, 0x5a, 0xd1, 0x3f, 0xb4, 0xd8, 0xf5, 0x3f, 0x75, 0xb3, 0xb7, 0x3f,
  0x12, 0x59, 0xe2, 0x3f, 0xa1, 0x06, 0xc9, 0x3f, 0x46, 0x6f, 0xe8, 0x3f,
  0x69, 0x70, 0x99, 0x3f, 0xdc, 0x16, 0xbe, 0x3f, 0x48, 0x59, 0xba, 0x3f,
  0xa3, 0x94, 0xb4, 0x3f, 0x7f, 0xc8, 0xb6, 0x3f, 0x91, 0xf8, 0xe3, 0x3f,
  0xb9, 0x89, 0x8c, 0x3f, 0xd4, 0x2e, 0xb0, 0x3f, 0xeb, 0xd0, 0xa0, 0x3f,
  0x9e, 0xce, 0x89, 0x3f, 0x54, 0x22, 0xcf, 0x3f, 0x40, 0x51, 0xd0, 0x3f,
  0xa1, 0x1b, 0x92, 0x3f, 0xe3, 0xbf, 0xc9, 0x3f, 0x80, 0x2a, 0xd6, 0x3f,
  0x7b, 0x41, 0x96, 0x3f, 0x61, 0x63, 0xbb, 0x3f, 0x20, 0x57, 0xcc, 0x3f,
  0x3d, 0x35, 0xe5, 0x3f, 0x7a, 0xd7, 0xc4, 0x3f, 0xc1, 0xf2, 0x9c, 0x3f,
  0x02, 0x5d, 0xc7, 0x3f, 0x69, 0x6e, 0x9b, 0x3f, 0xac, 0xd6, 0xa1, 0x3f,
  0x69, 0x85, 0xe3, 0x3f, 0x65, 0x38, 0xba, 0x3f, 0x7e, 0xdb, 0xd1, 0x3f,
  0xf3, 0xbc, 0xca, 0x3f, 0x88, 0xf4, 0xff, 0xff, 0x8c, 0xf4, 0xff, 0xff,
  0x04, 0x00, 0x06, 0x00, 0x04, 0x00, 0x00, 0x00, 0x00, 0x00, 0x06, 0x00,
  0x08, 0x00, 0x04, 0x00, 0x06, 0x00, 0x00, 0x00, 0x04, 0x00, 0x00, 0x00,
  0xa4, 0x05, 0x00, 0x00, 0x24, 0xfd, 0x55, 0x3f, 0xc7, 0x8f, 0x30, 0x3f,
  0xaa, 0xc8, 0x6a, 0x3f, 0xac, 0xbe, 0x6f, 0x3f, 0x74, 0x6c, 0x92, 0x3f,
  0x64, 0x42, 0xf2, 0x3f, 0x99, 0x12, 0x69, 0x3c, 0x3e, 0x9c, 0xc3, 0x3f,
  0x75, 0x53, 0x7c, 0x3f, 0x40, 0xf1, 0x74, 0x3f, 0x49, 0xf9, 0x2a, 0x40,
  0xe1, 0xfe, 0x31, 0x40, 0x78, 0x95, 0x08, 0x3f, 0x5e, 0xaf, 0xa7, 0x3f,
  0xbb, 0xa2, 0x87, 0x3f, 0x55, 0x15, 0x65, 0x3f, 0x3f, 0x9c, 0xc3, 0x3f,
  0xa2, 0xce, 0xc7, 0x3f, 0xc1, 0xda, 0x3f, 0x3f, 0x66, 0x73, 0x50, 0x3f,
  0x5d, 0x5e, 0x24, 0x3f, 0x3c, 0x3c, 0x8c, 0x3f, 0xa0, 0xd3, 0xc7, 0x3e,
  0xa0, 0x84, 0xce, 0x3f, 0x42, 0xab, 0xc9, 0x3f, 0x8c, 0x1d, 0xd1, 0x3e,
  0x0f, 0x24, 0xa1, 0x3f, 0x02, 0x38, 0x8c, 0x3f, 0x46, 0xac, 0xae, 0x3f,
  0xd3, 0x34, 0x40, 0x40, 0xd9, 0x05, 0x18, 0x40, 0x5c, 0xb0, 0x7f, 0x3f,
  0x7f, 0x77, 0xc6, 0x3f, 0x36, 0x5f, 0xd0, 0x3f, 0xc8, 0x4b, 0x9c, 0x3e,
  0x49, 0xf4, 0xaf, 0x3f, 0xdd, 0x05, 0x81, 0x3f, 0xbe, 0xeb, 0x95, 0x3f,
  0x48, 0xca, 0x85, 0x3f, 0x1a, 0x2f, 0x4e, 0x3f, 0x28, 0x30, 0x95, 0x3f,
  0x41, 0x4b, 0xe5, 0x3e, 0xe1, 0xd3, 0xa2, 0x3f, 0x68, 0x52, 0x04, 0x40,
  0xa1, 0x12, 0xc5, 0x3e, 0x4b, 0xd9, 0xbc, 0x3f, 0xf1, 0x7a, 0xb2, 0x3f,
  0xca, 0xf0, 0xbc, 0x3f, 0x19, 0xfc, 0x33, 0x40, 0xd4, 0x15, 0x17, 0x40,
  0x48, 0xed, 0xb2, 0x3e, 0x30, 0x2c, 0x99, 0x3f, 0x2a, 0xbe, 0xce, 0x3f,
  0x2c, 0x9a, 0x5a, 0x3f, 0x2b, 0xc1, 0x8c, 0x3f, 0xa8, 0x0c, 0x8c, 0x3f,
  0x42, 0x2e, 0x6c, 0x3f, 0xae, 0x26, 0x87, 0x3f, 0x8d, 0x83, 0x09, 0x3f,
  0x00, 0xed, 0x40, 0x3f, 0x23, 0xac, 0x36, 0x3f, 0xe7, 0x85, 0xa4, 0x3f,
  0x4d, 0xa2, 0xf8, 0x3f, 0xc8, 0x93, 0x0c, 0x3f, 0xf5, 0x76, 0xae, 0x3f,
  0x45, 0x3a, 0x99, 0x3f, 0x8e, 0x5d, 0x86, 0x3f, 0x17, 0x77, 0x19, 0x40,
  0x5e, 0x72, 0x20, 0x40, 0x02, 0x82, 0x26, 0x3f, 0x6c, 0x7e, 0xa4, 0x3f,
  0x32, 0x10, 0xcf, 0x3f, 0x10, 0xa4, 0x06, 0x3f, 0x05, 0x6e, 0xa5, 0x3f,
  0xc6, 0x7b, 0xa5, 0x3f, 0x74, 0x60, 0x74, 0x3f, 0xbc, 0x7c, 0x4a, 0x3f,
  0x5f, 0xf7, 0x41, 0x3f, 0x7a, 0xf9, 0x9b, 0x3f, 0x71, 0xeb, 0x18, 0x3f,
  0x37, 0xc7, 0xb4, 0x3f, 0xc6, 0x5d, 0xc4, 0x3f, 0x07, 0xb1, 0x05, 0x3f,
  0x74, 0xb3, 0xa6, 0x3f, 0x97, 0x7c, 0x9f, 0x3f, 0x74, 0x26, 0x66, 0x3f,
  0x3d, 0xfa, 0x43, 0x40, 0x3d, 0x54, 0x2e, 0x40, 0x59, 0xb4, 0x18, 0x3f,
  0xfe, 0xe7, 0xc4, 0x3f, 0xe2, 0x12, 0xb2, 0x3f, 0xb2, 0x2b, 0x66, 0x3f,
  0x4a, 0xa8, 0xc2, 0x3f, 0x8e, 0xa5, 0x94, 0x3f, 0xb5, 0x11, 0x81, 0x3f,
  0xe9, 0x1e, 0x8c, 0x3f, 0x5e, 0xee, 0x6e, 0x3f, 0x8e, 0x93, 0xf6, 0x3e,
  0x48, 0x8d, 0x9d, 0x3e, 0xbc, 0x10, 0x9d, 0x3f, 0x8b, 0x4f, 0x00, 0x40,
  0x73, 0x67, 0x55, 0x3e, 0x41, 0xdc, 0x89, 0x3f, 0x82, 0x65, 0xab, 0x3f,
  0xcb, 0x92, 0x76, 0x3f, 0x94, 0x45, 0x3b, 0x40, 0x4d, 0x4c, 0x04, 0x40,
  0x17, 0xdc, 0x18, 0x3f, 0x5e, 0x0c, 0xb8, 0x3f, 0x14, 0x96, 0xab, 0x3f,
  0x5e, 0xc0, 0xa2, 0x3e, 0xe6, 0xac, 0x48, 0x3f, 0x77, 0x6a, 0x90, 0x3f,
  0xe4, 0x8e, 0xa4, 0x3f, 0x65, 0x87, 0x28, 0x3f, 0xfd, 0x0d, 0x39, 0x3f,
  0xd0, 0x37, 0x91, 0x3e, 0x55, 0x6c, 0xd8, 0x3e, 0x3c, 0x41, 0xaa, 0x3f,
  0x71, 0xf1, 0xaf, 0x3f, 0xc5, 0x5e, 0x02, 0xbe, 0xee, 0x7b, 0x29, 0x3f,
  0xed, 0x23, 0xa1, 0x3f, 0x21, 0x24, 0x88, 0x3f, 0xe1, 0x5e, 0x0a, 0x40,
  0xf9, 0xdf, 0x25, 0x40, 0x46, 0x89, 0xac, 0x3e, 0xb1, 0xd9, 0xc0, 0x3f,
  0xeb, 0x21, 0xa3, 0x3f, 0xb0, 0x8e, 0xe8, 0x3e, 0xf7, 0xe2, 0x6b, 0x3f,
  0xec, 0xdc, 0x8b, 0x3f, 0x8d, 0x3d, 0x64, 0x3f, 0x4c, 0x29, 0xa8, 0x3f,
  0x75, 0xe9, 0x87, 0x3f, 0xaa, 0x9c, 0xa9, 0x3f, 0x88, 0xaa, 0x91, 0x3f,
  0x80, 0xd5, 0xb0, 0x3f, 0x96, 0x8a, 0xd4, 0x3f, 0x2e, 0x86, 0x32, 0x3f,
  0x5a, 0x5c, 0xdd, 0x3f, 0x3b, 0xec, 0x91, 0x3f, 0x60, 0x7c, 0xbf, 0x3f,
  0xe7, 0x9d, 0x48, 0x40, 0x0d, 0x85, 0x1f, 0x40, 0x9a, 0xd4, 0x80, 0x3f,
  0xc8, 0xdb, 0xeb, 0x3f, 0x8f, 0x20, 0x90, 0x3f, 0x15, 0x44, 0x02, 0x3f,
  0x7d, 0xb3, 0xaf, 0x3f, 0xf5, 0x1b, 0xa3, 0x3f, 0xcf, 0x06, 0x42, 0x3f,
  0xaf, 0x8a, 0x32, 0x3f, 0xff, 0x64, 0x17, 0x3f, 0xce, 0xc7, 0x89, 0x3f,
  0x24, 0xb6, 0x61, 0x3f, 0xf2, 0xce, 0xeb, 0x3f, 0xcb, 0x33, 0x08, 0x40,
  0xc5, 0x10, 0x13, 0x3f, 0xdf, 0x5d, 0xd8, 0x3f, 0xf4, 0xef, 0xd8, 0x3f,
  0xbb, 0x93, 0x95, 0x3f, 0xd3, 0xc0, 0x41, 0x40, 0xbf, 0x2c, 0x0c, 0x40,
  0x28, 0xfd, 0xc1, 0x3e, 0xc1, 0x1b, 0xf0, 0x3f, 0xa5, 0x82, 0x88, 0x3f,
  0x7d, 0xb8, 0x93, 0x3e, 0xa2, 0xb6, 0x76, 0x3f, 0x7b, 0x34, 0xdb, 0x3f,
  0x2f, 0xc9, 0xb4, 0x3f, 0x00, 0x78, 0x3c, 0x3f, 0x1d, 0x83, 0x8c, 0x3f,
  0xcf, 0x5a, 0x1e, 0x3f, 0x9d, 0xb6, 0x4c, 0x3f, 0xe6, 0x6d, 0xa4, 0x3f,
  0xd4, 0x2f, 0x0b, 0x40, 0xdb, 0xd7, 0xb7, 0x3e, 0x09, 0xd6, 0xa8, 0x3f,
  0xee, 0x6a, 0xdc, 0x3f, 0x1c, 0xe1, 0xa0, 0x3f, 0x51, 0x55, 0x2d, 0x40,
  0x49, 0xe6, 0x25, 0x40, 0x84, 0xb4, 0xde, 0x3e, 0x27, 0xc0, 0xbe, 0x3f,
  0xa8, 0x69, 0xa2, 0x3f, 0x3d, 0xc8, 0x5d, 0x3f, 0x40, 0xce, 0xac, 0x3f,
  0x23, 0xa8, 0xc9, 0x3f, 0x7c, 0xca, 0xa9, 0x3f, 0xee, 0x5e, 0xa5, 0x3f,
  0xd7, 0xab, 0x9b, 0x3f, 0x9b, 0xd8, 0x5a, 0x3f, 0xef, 0xc7, 0x8b, 0x3f,
  0x82, 0x4e, 0xb6, 0x3f, 0xde, 0x93, 0xe7, 0x3f, 0xa1, 0x00, 0xb2, 0x3e,
  0x16, 0x00, 0xb5, 0x3f, 0x49, 0xba, 0xb4, 0x3f, 0x3a, 0xd6, 0x86, 0x3f,
  0x6d, 0x5c, 0x42, 0x40, 0x10, 0x4c, 0x21, 0x40, 0xf8, 0xa5, 0x0d, 0x3f,
  0xec, 0xa7, 0xdc, 0x3f, 0x00, 0xd4, 0xa5, 0x3f, 0x9e, 0x64, 0xa2, 0x3e,
  0x1f, 0xb7, 0xc3, 0x3f, 0xd9, 0x13, 0xbd, 0x3f, 0xe3, 0xab, 0x89, 0x3f,
  0x4e, 0x77, 0x84, 0x3f, 0x56, 0xa4, 0x2d, 0x3f, 0x2e, 0x5a, 0x28, 0x3f,
  0xb9, 0xd8, 0x15, 0x3f, 0x7a, 0x71, 0x8a, 0x3f, 0x92, 0xf3, 0xdd, 0x3f,
  0x05, 0x56, 0x0e, 0x3f, 0x2d, 0x59, 0x87, 0x3f, 0x77, 0x79, 0xa2, 0x3f,
  0xf9, 0xb2, 0x5f, 0x3f, 0xbf, 0xf4, 0x1a, 0x40, 0x31, 0x80, 0x2a, 0x40,
  0x47, 0x97, 0x9f, 0x3e, 0x4b, 0x40, 0xab, 0x3f, 0x53, 0x23, 0xa2, 0x3f,
  0x2e, 0x9e, 0xa4, 0x3e, 0xa7, 0xcc, 0xbe, 0x3f, 0xc2, 0x7a, 0xde, 0x3f,
  0xb6, 0x0c, 0x13, 0x3f, 0xf1, 0x1a, 0x6b, 0x3f, 0x7a, 0x8d, 0x80, 0x3f,
  0x93, 0xd4, 0x81, 0x3f, 0x54, 0x83, 0x69, 0x3f, 0xf5, 0xaf, 0xa5, 0x3f,
  0x21, 0xab, 0xfb, 0x3f, 0x14, 0x86, 0x33, 0x3f, 0x0f, 0x69, 0x85, 0x3f,
  0x0e, 0x34, 0xd1, 0x3f, 0x1e, 0xb6, 0xb6, 0x3f, 0x8f, 0xef, 0x18, 0x40,
  0x8f, 0x71, 0x0c, 0x40, 0xa7, 0xed, 0x8c, 0x3f, 0x87, 0x12, 0xd8, 0x3f,
  0x8d, 0x1a, 0xa4, 0x3f, 0xbe, 0x06, 0x42, 0x3f, 0xcd, 0xed, 0xd3, 0x3f,
  0x6d, 0x8d, 0xaf, 0x3f, 0xcd, 0x54, 0x73, 0x3f, 0x2a, 0xf1, 0x36, 0x3f,
  0x37, 0xee, 0xc4, 0x3e, 0x7b, 0x22, 0x07, 0x3e, 0x2b, 0x4c, 0xfa, 0x3d,
  0x81, 0x40, 0x93, 0x3f, 0x75, 0x57, 0xbf, 0x3f, 0xcb, 0xc6, 0xe7, 0x3b,
  0xbe, 0x07, 0x67, 0x3f, 0x29, 0x62, 0xa2, 0x3f, 0x36, 0x29, 0x81, 0x3f,
  0x36, 0x58, 0x0a, 0x40, 0x6d, 0xc6, 0x14, 0x40, 0x37, 0x1c, 0x9d, 0x3e,
  0xe8, 0x40, 0x8f, 0x3f, 0xe6, 0xf5, 0x5a, 0x3f, 0xd0, 0xa0, 0xe8, 0x3e,
  0xd5, 0x6a, 0xfd, 0x3e, 0x30, 0x4f, 0x1b, 0x3f, 0x3a, 0xe6, 0xa6, 0x3e,
  0xe9, 0x0c, 0x82, 0x3f, 0x10, 0x69, 0x27, 0x3f, 0x7a, 0x9c, 0x74, 0x3f,
  0xfa, 0xaf, 0x5c, 0x3f, 0x77, 0xf8, 0xbb, 0x3f, 0x7d, 0x72, 0xd7, 0x3f,
  0xd0, 0xe8, 0x32, 0x3f, 0x2e, 0xf9, 0xdb, 0x3f, 0x8d, 0xd8, 0xa9, 0x3f,
  0x18, 0x51, 0xa4, 0x3f, 0x5c, 0x33, 0x47, 0x40, 0x06, 0x29, 0x38, 0x40,
  0x7c, 0xde, 0xc7, 0x3e, 0xbd, 0x3a, 0xdc, 0x3f, 0x9f, 0x44, 0xad, 0x3f,
  0xab, 0x93, 0x82, 0x3f, 0xe5, 0xef, 0xc7, 0x3f, 0x24, 0x3e, 0xd2, 0x3f,
  0xa1, 0xb0, 0x8c, 0x3f, 0xc5, 0x71, 0x63, 0x3f, 0x4f, 0x14, 0x8f, 0x3f,
  0xe9, 0x67, 0x1a, 0x3f, 0x7b, 0x1a, 0x3c, 0x3f, 0x37, 0x4c, 0xed, 0x3f,
  0xc2, 0x9d, 0xc2, 0x3f, 0x44, 0x8b, 0xa7, 0x3d, 0xaa, 0x3d, 0x96, 0x3f,
  0x13, 0x18, 0xb8, 0x3f, 0xf8, 0x4f, 0x9a, 0x3f, 0x66, 0x25, 0x2d, 0x40,
  0xe3, 0x99, 0x17, 0x40, 0x56, 0x59, 0x90, 0x3f, 0x2a, 0x0e, 0xb2, 0x3f,
  0xef, 0xe3, 0xa1, 0x3f, 0xbf, 0x80, 0xff, 0x3e, 0x10, 0x1c, 0x6c, 0x3f,
  0x67, 0x50, 0x95, 0x3f, 0xeb, 0x5e, 0x4a, 0x3f, 0x6c, 0x67, 0x71, 0x3f,
  0xe3, 0x10, 0x8c, 0x3e, 0xf8, 0x98, 0xce, 0x3d, 0xfd, 0x85, 0x00, 0x3f,
  0xf3, 0x66, 0x80, 0x3f, 0x61, 0x54, 0xb5, 0x3f, 0xb7, 0x57, 0x95, 0x3d,
  0xc7, 0x99, 0x73, 0x3f, 0xe9, 0x8c, 0x7e, 0x3f, 0xbe, 0xc9, 0x6c, 0x3f,
  0x90, 0xa8, 0x0e, 0x40, 0x89, 0xe4, 0x02, 0x40, 0x29, 0x36, 0x83, 0x3e,
  0xbf, 0xee, 0xa4, 0x3f, 0x64, 0x1f, 0x9e, 0x3f, 0x83, 0xa1, 0xad, 0xbd,
  0x2d, 0xc6, 0x45, 0x3f, 0x57, 0x10, 0x43, 0x3f, 0xe5, 0xc1, 0x48, 0x3f,
  0x49, 0x02, 0x41, 0x3f, 0xfa, 0x20, 0xa4, 0x3f, 0x65, 0x46, 0x53, 0x3f,
  0xfe, 0x95, 0xfc, 0x3e, 0xbb, 0x76, 0xa3, 0x3f, 0xe8, 0x93, 0xe3, 0x3f,
  0x33, 0xe9, 0x57, 0x3f, 0x01, 0x83, 0x87, 0x3f, 0x71, 0x2b, 0x93, 0x3f,
  0x57, 0x36, 0x9a, 0x3f, 0xe5, 0x40, 0x1e, 0x40, 0x52, 0xaa, 0x23, 0x40,
  0xc3, 0x93, 0x6e, 0x3f, 0xe2, 0x6a, 0xb0, 0x3f, 0xea, 0x9d, 0x9c, 0x3f,
  0x22, 0xdc, 0x04, 0x3f, 0xe3, 0xef, 0xd3, 0x3f, 0xd8, 0xfd, 0xaf, 0x3f,
  0xcc, 0xc4, 0x59, 0x3f, 0x3e, 0xa9, 0x79, 0x3f, 0x46, 0x8b, 0x52, 0x3f,
  0xa7, 0x8a, 0x3b, 0x3f, 0x0b, 0x98, 0x56, 0x3f, 0x6f, 0xfa, 0x9b, 0x3f,
  0x45, 0xe6, 0xce, 0x3f, 0x37, 0xeb, 0xda, 0x3d, 0x87, 0x69, 0xa0, 0x3f,
  0x36, 0x28, 0xc5, 0x3f, 0x7e, 0xcf, 0xa2, 0x3f, 0xa4, 0x8c, 0x28, 0x40,
  0x16, 0xea, 0x2a, 0x40, 0x09, 0xa5, 0xc2, 0x3e, 0xbd, 0x19, 0x03, 0x40,
  0xb1, 0xaf, 0xeb, 0x3f, 0x27, 0xf7, 0xe3, 0x3e, 0x93, 0x23, 0x9f, 0x3f,
  0xb5, 0x6b, 0xbb, 0x3f, 0xb3, 0xa2, 0x4f, 0x3f, 0x50, 0xfa, 0xff, 0xff,
  0x0c, 0x00, 0x14, 0x00, 0x04, 0x00, 0x08, 0x00, 0x0c, 0x00, 0x10, 0x00,
  0x0c, 0x00, 0x00, 0x00, 0x20, 0x00, 0x00, 0x00, 0x14, 0x00, 0x00, 0x00,
  0x08, 0x00, 0x00, 0x00, 0x44, 0x05, 0x00, 0x00, 0x01, 0x00, 0x00, 0x00,
  0x00, 0x00, 0x00, 0x00, 0x01, 0x00, 0x00, 0x00, 0x01, 0x00, 0x00, 0x00,
  0x10, 0x00, 0x00, 0x00, 0xc8, 0x02, 0x00, 0x00, 0x68, 0x04, 0x00, 0x00,
  0x60, 0x02, 0x00, 0x00, 0x14, 0x02, 0x00, 0x00, 0x18, 0x04, 0x00, 0x00,
  0xb8, 0x04, 0x00, 0x00, 0xc0, 0x01, 0x00, 0x00, 0x24, 0x03, 0x00, 0x00,
  0x64, 0x03, 0x00, 0x00, 0x6c, 0x01, 0x00, 0x00, 0xd4, 0x02, 0x00, 0x00,
  0x04, 0x01, 0x00, 0x00, 0xb8, 0x00, 0x00, 0x00, 0xb0, 0x03, 0x00, 0x00,
  0x50, 0x00, 0x00, 0x00, 0x04, 0x00, 0x00, 0x00, 0x82, 0xfb, 0xff, 0xff,
  0x10, 0x00, 0x00, 0x00, 0x10, 0x00, 0x00, 0x00, 0x10, 0x00, 0x00, 0x00,
  0x34, 0x00, 0x00, 0x00, 0x01, 0x00, 0x00, 0x00, 0x01, 0x00, 0x00, 0x00,
  0x21, 0x00, 0x00, 0x00, 0x73, 0x65, 0x71, 0x75, 0x65, 0x6e, 0x74, 0x69,
  0x61, 0x6c, 0x5f, 0x39, 0x2f, 0x64, 0x65, 0x6e, 0x73, 0x65, 0x5f, 0x33,
  0x32, 0x2f, 0x4d, 0x61, 0x74, 0x4d, 0x75, 0x6c, 0x5f, 0x62, 0x69, 0x61,
  0x73, 0x00, 0x00, 0x00, 0x0c, 0xfb, 0xff, 0xff, 0xca, 0xfb, 0xff, 0xff,
  0x10, 0x00, 0x00, 0x00, 0x0f, 0x00, 0x00, 0x00, 0x14, 0x00, 0x00, 0x00,
  0x4c, 0x00, 0x00, 0x00, 0x02, 0x00, 0x00, 0x00, 0x01, 0x00, 0x00, 0x00,
  0x13, 0x00, 0x00, 0x00, 0x35, 0x00, 0x00, 0x00, 0x73, 0x65, 0x71, 0x75,
  0x65, 0x6e, 0x74, 0x69, 0x61, 0x6c, 0x5f, 0x39, 0x2f, 0x64, 0x65, 0x6e,
  0x73, 0x65, 0x5f, 0x33, 0x32, 0x2f, 0x4d, 0x61, 0x74, 0x4d, 0x75, 0x6c,
  0x2f, 0x52, 0x65, 0x61, 0x64, 0x56, 0x61, 0x72, 0x69, 0x61, 0x62, 0x6c,
  0x65, 0x4f, 0x70, 0x2f, 0x74, 0x72, 0x61, 0x6e, 0x73, 0x70, 0x6f, 0x73,
  0x65, 0x00, 0x00, 0x00, 0x6c, 0xfb, 0xff, 0xff, 0x2a, 0xfc, 0xff, 0xff,
  0x10, 0x00, 0x00, 0x00, 0x0e, 0x00, 0x00, 0x00, 0x10, 0x00, 0x00, 0x00,
  0x34, 0x00, 0x00, 0x00, 0x01, 0x00, 0x00, 0x00, 0x13, 0x00, 0x00, 0x00,
  0x21, 0x00, 0x00, 0x00, 0x73, 0x65, 0x71, 0x75, 0x65, 0x6e, 0x74, 0x69,
  0x61, 0x6c, 0x5f, 0x39, 0x2f, 0x64, 0x65, 0x6e, 0x73, 0x65, 0x5f, 0x33,
  0x31, 0x2f, 0x4d, 0x61, 0x74, 0x4d, 0x75, 0x6c, 0x5f, 0x62, 0x69, 0x61,
  0x73, 0x00, 0x00, 0x00, 0xb4, 0xfb, 0xff, 0xff, 0x72, 0xfc, 0xff, 0xff,
  0x10, 0x00, 0x00, 0x00, 0x0d, 0x00, 0x00, 0x00, 0x14, 0x00, 0x00, 0x00,
  0x4c, 0x00, 0x00, 0x00, 0x02, 0x00, 0x00, 0x00, 0x13, 0x00, 0x00, 0x00,
  0x13, 0x00, 0x00, 0x00, 0x35, 0x00, 0x00, 0x00, 0x73, 0x65, 0x71, 0x75,
  0x65, 0x6e, 0x74, 0x69, 0x61, 0x6c, 0x5f, 0x39, 0x2f, 0x64, 0x65, 0x6e,
  0x73, 0x65, 0x5f, 0x33, 0x31, 0x2f, 0x4d, 0x61, 0x74, 0x4d, 0x75, 0x6c,
  0x2f, 0x52, 0x65, 0x61, 0x64, 0x56, 0x61, 0x72, 0x69, 0x61, 0x62, 0x6c,
  0x65, 0x4f, 0x70, 0x2f, 0x74, 0x72, 0x61, 0x6e, 0x73, 0x70, 0x6f, 0x73,
  0x65, 0x00, 0x00, 0x00, 0x14, 0xfc, 0xff, 0xff, 0xd2, 0xfc, 0xff, 0xff,
  0x10, 0x00, 0x00, 0x00, 0x0c, 0x00, 0x00, 0x00, 0x10, 0x00, 0x00, 0x00,
  0x34, 0x00, 0x00, 0x00, 0x01, 0x00, 0x00, 0x00, 0x13, 0x00, 0x00, 0x00,
  0x21, 0x00, 0x00, 0x00, 0x73, 0x65, 0x71, 0x75, 0x65, 0x6e, 0x74, 0x69,
  0x61, 0x6c, 0x5f, 0x39, 0x2f, 0x64, 0x65, 0x6e, 0x73, 0x65, 0x5f, 0x33,
  0x30, 0x2f, 0x4d, 0x61, 0x74, 0x4d, 0x75, 0x6c, 0x5f, 0x62, 0x69, 0x61,
  0x73, 0x00, 0x00, 0x00, 0x5c, 0xfc, 0xff, 0xff, 0x1a, 0xfd, 0xff, 0xff,
  0x10, 0x00, 0x00, 0x00, 0x0b, 0x00, 0x00, 0x00, 0x10, 0x00, 0x00, 0x00,
  0x34, 0x00, 0x00, 0x00, 0x01, 0x00, 0x00, 0x00, 0x13, 0x00, 0x00, 0x00,
  0x21, 0x00, 0x00, 0x00, 0x73, 0x65, 0x71, 0x75, 0x65, 0x6e, 0x74, 0x69,
  0x61, 0x6c, 0x5f, 0x39, 0x2f, 0x64, 0x65, 0x6e, 0x73, 0x65, 0x5f, 0x32,
  0x39, 0x2f, 0x4d, 0x61, 0x74, 0x4d, 0x75, 0x6c, 0x5f, 0x62, 0x69, 0x61,
  0x73, 0x00, 0x00, 0x00, 0xa4, 0xfc, 0xff, 0xff, 0x62, 0xfd, 0xff, 0xff,
  0x10, 0x00, 0x00, 0x00, 0x0a, 0x00, 0x00, 0x00, 0x10, 0x00, 0x00, 0x00,
  0x34, 0x00, 0x00, 0x00, 0x01, 0x00, 0x00, 0x00, 0x13, 0x00, 0x00, 0x00,
  0x21, 0x00, 0x00, 0x00, 0x73, 0x65, 0x71, 0x75, 0x65, 0x6e, 0x74, 0x69,
  0x61, 0x6c, 0x5f, 0x39, 0x2f, 0x64, 0x65, 0x6e, 0x73, 0x65, 0x5f, 0x32,
  0x38, 0x2f, 0x4d, 0x61, 0x74, 0x4d, 0x75, 0x6c, 0x5f, 0x62, 0x69, 0x61,
  0x73, 0x00, 0x00, 0x00, 0xec, 0xfc, 0xff, 0xff, 0xaa, 0xfd, 0xff, 0xff,
  0x10, 0x00, 0x00, 0x00, 0x09, 0x00, 0x00, 0x00, 0x14, 0x00, 0x00, 0x00,
  0x4c, 0x00, 0x00, 0x00, 0x02, 0x00, 0x00, 0x00, 0x13, 0x00, 0x00, 0x00,
  0x10, 0x00, 0x00, 0x00, 0x35, 0x00, 0x00, 0x00, 0x73, 0x65, 0x71, 0x75,
  0x65, 0x6e, 0x74, 0x69, 0x61, 0x6c, 0x5f, 0x39, 0x2f, 0x64, 0x65, 0x6e,
  0x73, 0x65, 0x5f, 0x32, 0x38, 0x2f, 0x4d, 0x61, 0x74, 0x4d, 0x75, 0x6c,
  0x2f, 0x52, 0x65, 0x61, 0x64, 0x56, 0x61, 0x72, 0x69, 0x61, 0x62, 0x6c,
  0x65, 0x4f, 0x70, 0x2f, 0x74, 0x72, 0x61, 0x6e, 0x73, 0x70, 0x6f, 0x73,
  0x65, 0x00, 0x00, 0x00, 0x4c, 0xfd, 0xff, 0xff, 0x0a, 0xfe, 0xff, 0xff,
  0x10, 0x00, 0x00, 0x00, 0x08, 0x00, 0x00, 0x00, 0x14, 0x00, 0x00, 0x00,
  0x20, 0x00, 0x00, 0x00, 0x02, 0x00, 0x00, 0x00, 0x01, 0x00, 0x00, 0x00,
  0x01, 0x00, 0x00, 0x00, 0x08, 0x00, 0x00, 0x00, 0x49, 0x64, 0x65, 0x6e,
  0x74, 0x69, 0x74, 0x79, 0x00, 0x00, 0x00, 0x00, 0x80, 0xfd, 0xff, 0xff,
  0x3e, 0xfe, 0xff, 0xff, 0x10, 0x00, 0x00, 0x00, 0x07, 0x00, 0x00, 0x00,
  0x14, 0x00, 0x00, 0x00, 0x30, 0x00, 0x00, 0x00, 0x02, 0x00, 0x00, 0x00,
  0x01, 0x00, 0x00, 0x00, 0x13, 0x00, 0x00, 0x00, 0x1a, 0x00, 0x00, 0x00,
  0x73, 0x65, 0x71, 0x75, 0x65, 0x6e, 0x74, 0x69, 0x61, 0x6c, 0x5f, 0x39,
  0x2f, 0x64, 0x65, 0x6e, 0x73, 0x65, 0x5f, 0x33, 0x30, 0x2f, 0x52, 0x65,
  0x6c, 0x75, 0x00, 0x00, 0xc4, 0xfd, 0xff, 0xff, 0x82, 0xfe, 0xff, 0xff,
  0x10, 0x00, 0x00, 0x00, 0x06, 0x00, 0x00, 0x00, 0x14, 0x00, 0x00, 0x00,
  0x30, 0x00, 0x00, 0x00, 0x02, 0x00, 0x00, 0x00, 0x01, 0x00, 0x00, 0x00,
  0x13, 0x00, 0x00, 0x00, 0x1a, 0x00, 0x00, 0x00, 0x73, 0x65, 0x71, 0x75,
  0x65, 0x6e, 0x74, 0x69, 0x61, 0x6c, 0x5f, 0x39, 0x2f, 0x64, 0x65, 0x6e,
  0x73, 0x65, 0x5f, 0x32, 0x39, 0x2f, 0x52, 0x65, 0x6c, 0x75, 0x00, 0x00,
  0x08, 0xfe, 0xff, 0xff, 0xc6, 0xfe, 0xff, 0xff, 0x10, 0x00, 0x00, 0x00,
  0x05, 0x00, 0x00, 0x00, 0x14, 0x00, 0x00, 0x00, 0x4c, 0x00, 0x00, 0x00,
  0x02, 0x00, 0x00, 0x00, 0x13, 0x00, 0x00, 0x00, 0x13, 0x00, 0x00, 0x00,
  0x35, 0x00, 0x00, 0x00, 0x73, 0x65, 0x71, 0x75, 0x65, 0x6e, 0x74, 0x69,
  0x61, 0x6c, 0x5f, 0x39, 0x2f, 0x64, 0x65, 0x6e, 0x73, 0x65, 0x5f, 0x33,
  0x30, 0x2f, 0x4d, 0x61, 0x74, 0x4d, 0x75, 0x6c, 0x2f, 0x52, 0x65, 0x61,
  0x64, 0x56, 0x61, 0x72, 0x69, 0x61, 0x62, 0x6c, 0x65, 0x4f, 0x70, 0x2f,
  0x74, 0x72, 0x61, 0x6e, 0x73, 0x70, 0x6f, 0x73, 0x65, 0x00, 0x00, 0x00,
  0x68, 0xfe, 0xff, 0xff, 0x26, 0xff, 0xff, 0xff, 0x10, 0x00, 0x00, 0x00,
  0x04, 0x00, 0x00, 0x00, 0x14, 0x00, 0x00, 0x00, 0x30, 0x00, 0x00, 0x00,
  0x02, 0x00, 0x00, 0x00, 0x01, 0x00, 0x00, 0x00, 0x13, 0x00, 0x00, 0x00,
  0x1a, 0x00, 0x00, 0x00, 0x73, 0x65, 0x71, 0x75, 0x65, 0x6e, 0x74, 0x69,
  0x61, 0x6c, 0x5f, 0x39, 0x2f, 0x64, 0x65, 0x6e, 0x73, 0x65, 0x5f, 0x33,
  0x31, 0x2f, 0x52, 0x65, 0x6c, 0x75, 0x00, 0x00, 0xac, 0xfe, 0xff, 0xff,
  0x6a, 0xff, 0xff, 0xff, 0x10, 0x00, 0x00, 0x00, 0x03, 0x00, 0x00, 0x00,
  0x14, 0x00, 0x00, 0x00, 0x30, 0x00, 0x00, 0x00, 0x02, 0x00, 0x00, 0x00,
  0x01, 0x00, 0x00, 0x00, 0x13, 0x00, 0x00, 0x00, 0x1a, 0x00, 0x00, 0x00,
  0x73, 0x65, 0x71, 0x75, 0x65, 0x6e, 0x74, 0x69, 0x61, 0x6c, 0x5f, 0x39,
  0x2f, 0x64, 0x65, 0x6e, 0x73, 0x65, 0x5f, 0x32, 0x38, 0x2f, 0x52, 0x65,
  0x6c, 0x75, 0x00, 0x00, 0xf0, 0xfe, 0xff, 0xff, 0xae, 0xff, 0xff, 0xff,
  0x10, 0x00, 0x00, 0x00, 0x02, 0x00, 0x00, 0x00, 0x14, 0x00, 0x00, 0x00,
  0x24, 0x00, 0x00, 0x00, 0x02, 0x00, 0x00, 0x00, 0x01, 0x00, 0x00, 0x00,
  0x10, 0x00, 0x00, 0x00, 0x07, 0x00, 0x00, 0x00, 0x69, 0x6e, 0x70, 0x75,
  0x74, 0x5f, 0x31, 0x00, 0x08, 0x00, 0x0c, 0x00, 0x04, 0x00, 0x08, 0x00,
  0x08, 0x00, 0x00, 0x00, 0x10, 0x00, 0x00, 0x00, 0x04, 0x00, 0x00, 0x00,
  0x01, 0x00, 0x00, 0x00, 0x00, 0x00, 0x7f, 0x43, 0x01, 0x00, 0x00, 0x00,
  0x00, 0x00, 0x00, 0x00, 0x00, 0x00, 0x0e, 0x00, 0x14, 0x00, 0x04, 0x00,
  0x00, 0x00, 0x08, 0x00, 0x0c, 0x00, 0x10, 0x00, 0x0e, 0x00, 0x00, 0x00,
  0x10, 0x00, 0x00, 0x00, 0x01, 0x00, 0x00, 0x00, 0x14, 0x00, 0x00, 0x00,
  0x4c, 0x00, 0x00, 0x00, 0x02, 0x00, 0x00, 0x00, 0x13, 0x00, 0x00, 0x00,
  0x13, 0x00, 0x00, 0x00, 0x35, 0x00, 0x00, 0x00, 0x73, 0x65, 0x71, 0x75,
  0x65, 0x6e, 0x74, 0x69, 0x61, 0x6c, 0x5f, 0x39, 0x2f, 0x64, 0x65, 0x6e,
  0x73, 0x65, 0x5f, 0x32, 0x39, 0x2f, 0x4d, 0x61, 0x74, 0x4d, 0x75, 0x6c,
  0x2f, 0x52, 0x65, 0x61, 0x64, 0x56, 0x61, 0x72, 0x69, 0x61, 0x62, 0x6c,
  0x65, 0x4f, 0x70, 0x2f, 0x74, 0x72, 0x61, 0x6e, 0x73, 0x70, 0x6f, 0x73,
  0x65, 0x00, 0x00, 0x00, 0xb0, 0xff, 0xff, 0xff, 0x05, 0x00, 0x00, 0x00,
  0x18, 0x01, 0x00, 0x00, 0xc4, 0x00, 0x00, 0x00, 0x84, 0x00, 0x00, 0x00,
  0x44, 0x00, 0x00, 0x00, 0x04, 0x00, 0x00, 0x00, 0x10, 0xff, 0xff, 0xff,
  0x00, 0x00, 0x00, 0x08, 0x14, 0x00, 0x00, 0x00, 0x20, 0x00, 0x00, 0x00,
  0x28, 0x00, 0x00, 0x00, 0x04, 0x00, 0x00, 0x00, 0x00, 0x00, 0x00, 0x00,
  0x03, 0x00, 0x00, 0x00, 0x0d, 0x00, 0x00, 0x00, 0x0e, 0x00, 0x00, 0x00,
  0x0f, 0x00, 0x00, 0x00, 0x01, 0x00, 0x00, 0x00, 0x00, 0x00, 0x00, 0x00,
  0x04, 0x00, 0x04, 0x00, 0x04, 0x00, 0x00, 0x00, 0x4c, 0xff, 0xff, 0xff,
  0x00, 0x00, 0x00, 0x08, 0x14, 0x00, 0x00, 0x00, 0x20, 0x00, 0x00, 0x00,
  0x24, 0x00, 0x00, 0x00, 0x04, 0x00, 0x00, 0x00, 0x00, 0x00, 0x00, 0x00,
  0x03, 0x00, 0x00, 0x00, 0x0a, 0x00, 0x00, 0x00, 0x0b, 0x00, 0x00, 0x00,
  0x0c, 0x00, 0x00, 0x00, 0x01, 0x00, 0x00, 0x00, 0x0d, 0x00, 0x00, 0x00,
  0x06, 0xff, 0xff, 0xff, 0x00, 0x00, 0x00, 0x01, 0x88, 0xff, 0xff, 0xff,
  0x00, 0x00, 0x00, 0x08, 0x14, 0x00, 0x00, 0x00, 0x20, 0x00, 0x00, 0x00,
  0x24, 0x00, 0x00, 0x00, 0x04, 0x00, 0x00, 0x00, 0x00, 0x00, 0x00, 0x00,
  0x03, 0x00, 0x00, 0x00, 0x07, 0x00, 0x00, 0x00, 0x08, 0x00, 0x00, 0x00,
  0x09, 0x00, 0x00, 0x00, 0x01, 0x00, 0x00, 0x00, 0x0a, 0x00, 0x00, 0x00,
  0x42, 0xff, 0xff, 0xff, 0x00, 0x00, 0x00, 0x01, 0xc4, 0xff, 0xff, 0xff,
  0x00, 0x00, 0x00, 0x08, 0x14, 0x00, 0x00, 0x00, 0x20, 0x00, 0x00, 0x00,
  0x24, 0x00, 0x00, 0x00, 0x04, 0x00, 0x00, 0x00, 0x00, 0x00, 0x00, 0x00,
  0x03, 0x00, 0x00, 0x00, 0x04, 0x00, 0x00, 0x00, 0x05, 0x00, 0x00, 0x00,
  0x06, 0x00, 0x00, 0x00, 0x01, 0x00, 0x00, 0x00, 0x07, 0x00, 0x00, 0x00,
  0x7e, 0xff, 0xff, 0xff, 0x00, 0x00, 0x00, 0x01, 0x14, 0x00, 0x18, 0x00,
  0x00, 0x00, 0x08, 0x00, 0x0c, 0x00, 0x07, 0x00, 0x10, 0x00, 0x00, 0x00,
  0x00, 0x00, 0x14, 0x00, 0x14, 0x00, 0x00, 0x00, 0x00, 0x00, 0x00, 0x08,
  0x14, 0x00, 0x00, 0x00, 0x20, 0x00, 0x00, 0x00, 0x24, 0x00, 0x00, 0x00,
  0x04, 0x00, 0x00, 0x00, 0x00, 0x00, 0x00, 0x00, 0x03, 0x00, 0x00, 0x00,
  0x01, 0x00, 0x00, 0x00, 0x02, 0x00, 0x00, 0x00, 0x03, 0x00, 0x00, 0x00,
  0x01, 0x00, 0x00, 0x00, 0x04, 0x00, 0x00, 0x00, 0xce, 0xff, 0xff, 0xff,
  0x00, 0x00, 0x00, 0x01, 0x01, 0x00, 0x00, 0x00, 0x04, 0x00, 0x00, 0x00,
  0xde, 0xff, 0xff, 0xff, 0x00, 0x00, 0x00, 0x09, 0xe6, 0xff, 0xff, 0xff,
  0x00, 0x00, 0x00, 0x09, 0xfa, 0xff, 0xff, 0xff, 0x00, 0x09, 0x06, 0x00,
  0x06, 0x00, 0x05, 0x00, 0x06, 0x00, 0x00, 0x00, 0x00, 0x09, 0x06, 0x00,
  0x08, 0x00, 0x07, 0x00, 0x06, 0x00, 0x00, 0x00, 0x00, 0x00, 0x00, 0x09
};
unsigned int g_sine_model_data = 8016;
